{
  "version": "1.0",
  "truncation": null,
  "padding": null,
  "added_tokens": [
    {
      "id": 0,
      "content": "<pad>",
      "single_word": false,
      "lstrip": false,
      "rstrip": false,
      "normalized": false,
      "special": true
    },
    {
      "id": 1,
      "content": "<unk>",
      "single_word": false,
      "lstrip": false,
      "rstrip": false,
      "normalized": false,
      "special": true
    },
    {
      "id": 2,
      "content": "<bos>",
      "single_word": false,
      "lstrip": false,
      "rstrip": false,
      "normalized": false,
      "special": true
    },
    {
      "id": 3,
      "content": "<eos>",
      "single_word": false,
      "lstrip": false,
      "rstrip": false,
      "normalized": false,
      "special": true
    }
  ],
  "normalizer": null,
  "pre_tokenizer": {
    "type": "ByteLevel",
    "add_prefix_space": false,
    "trim_offsets": true,
    "use_regex": true
  },
  "post_processor": null,
  "decoder": {
    "type": "ByteLevel",
    "add_prefix_space": true,
    "trim_offsets": true,
    "use_regex": true
  },
  "model": {
    "type": "BPE",
    "dropout": null,
    "unk_token": "<unk>",
    "continuing_subword_prefix": null,
    "end_of_word_suffix": null,
    "fuse_unk": false,
    "byte_fallback": false,
    "ignore_merges": false,
    "vocab": {
      "<pad>": 0,
      "<unk>": 1,
      "<bos>": 2,
      "<eos>": 3,
      "!": 4,
      "\"": 5,
      "#": 6,
      "$": 7,
      "%": 8,
      "&": 9,
      "'": 10,
      "(": 11,
      ")": 12,
      "*": 13,
      "+": 14,
      ",": 15,
      "-": 16,
      ".": 17,
      "/": 18,
      "0": 19,
      "1": 20,
      "2": 21,
      "3": 22,
      "4": 23,
      "5": 24,
      "6": 25,
      "7": 26,
      "8": 27,
      "9": 28,
      ":": 29,
      ";": 30,
      "<": 31,
      "=": 32,
      ">": 33,
      "?": 34,
      "@": 35,
      "A": 36,
      "B": 37,
      "C": 38,
      "D": 39,
      "E": 40,
      "F": 41,
      "G": 42,
      "H": 43,
      "I": 44,
      "J": 45,
      "K": 46,
      "L": 47,
      "M": 48,
      "N": 49,
      "O": 50,
      "P": 51,
      "Q": 52,
      "R": 53,
      "S": 54,
      "T": 55,
      "U": 56,
      "V": 57,
      "W": 58,
      "X": 59,
      "Y": 60,
      "Z": 61,
      "[": 62,
      "\\": 63,
      "]": 64,
      "^": 65,
      "_": 66,
      "`": 67,
      "a": 68,
      "b": 69,
      "c": 70,
      "d": 71,
      "e": 72,
      "f": 73,
      "g": 74,
      "h": 75,
      "i": 76,
      "j": 77,
      "k": 78,
      "l": 79,
      "m": 80,
      "n": 81,
      "o": 82,
      "p": 83,
      "q": 84,
      "r": 85,
      "s": 86,
      "t": 87,
      "u": 88,
      "v": 89,
      "w": 90,
      "x": 91,
      "y": 92,
      "z": 93,
      "{": 94,
      "|": 95,
      "}": 96,
      "~": 97,
      "¡": 98,
      "¢": 99,
      "£": 100,
      "¤": 101,
      "¥": 102,
      "¦": 103,
      "§": 104,
      "¨": 105,
      "©": 106,
      "ª": 107,
      "«": 108,
      "¬": 109,
      "®": 110,
      "¯": 111,
      "°": 112,
      "±": 113,
      "²": 114,
      "³": 115,
      "´": 116,
      "µ": 117,
      "¶": 118,
      "·": 119,
      "¸": 120,
      "¹": 121,
      "º": 122,
      "»": 123,
      "¼": 124,
      "½": 125,
      "¾": 126,
      "¿": 127,
      "À": 128,
      "Á": 129,
      "Â": 130,
      "Ã": 131,
      "Ä": 132,
      "Å": 133,
      "Æ": 134,
      "Ç": 135,
      "È": 136,
      "É": 137,
      "Ê": 138,
      "Ë": 139,
      "Ì": 140,
      "Í": 141,
      "Î": 142,
      "Ï": 143,
      "Ð": 144,
      "Ñ": 145,
      "Ò": 146,
      "Ó": 147,
      "Ô": 148,
      "Õ": 149,
      "Ö": 150,
      "×": 151,
      "Ø": 152,
      "Ù": 153,
      "Ú": 154,
      "Û": 155,
      "Ü": 156,
      "Ý": 157,
      "Þ": 158,
      "ß": 159,
      "à": 160,
      "á": 161,
      "â": 162,
      "ã": 163,
      "ä": 164,
      "å": 165,
      "æ": 166,
      "ç": 167,
      "è": 168,
      "é": 169,
      "ê": 170,
      "ë": 171,
      "ì": 172,
      "í": 173,
      "î": 174,
      "ï": 175,
      "ð": 176,
      "ñ": 177,
      "ò": 178,
      "ó": 179,
      "ô": 180,
      "õ": 181,
      "ö": 182,
      "÷": 183,
      "ø": 184,
      "ù": 185,
      "ú": 186,
      "û": 187,
      "ü": 188,
      "ý": 189,
      "þ": 190,
      "ÿ": 191,
      "Ā": 192,
      "ā": 193,
      "Ă": 194,
      "ă": 195,
      "Ą": 196,
      "ą": 197,
      "Ć": 198,
      "ć": 199,
      "Ĉ": 200,
      "ĉ": 201,
      "Ċ": 202,
      "ċ": 203,
      "Č": 204,
      "č": 205,
      "Ď": 206,
      "ď": 207,
      "Đ": 208,
      "đ": 209,
      "Ē": 210,
      "ē": 211,
      "Ĕ": 212,
      "ĕ": 213,
      "Ė": 214,
      "ė": 215,
      "Ę": 216,
      "ę": 217,
      "Ě": 218,
      "ě": 219,
      "Ĝ": 220,
      "ĝ": 221,
      "Ğ": 222,
      "ğ": 223,
      "Ġ": 224,
      "ġ": 225,
      "Ģ": 226,
      "ģ": 227,
      "Ĥ": 228,
      "ĥ": 229,
      "Ħ": 230,
      "ħ": 231,
      "Ĩ": 232,
      "ĩ": 233,
      "Ī": 234,
      "ī": 235,
      "Ĭ": 236,
      "ĭ": 237,
      "Į": 238,
      "į": 239,
      "İ": 240,
      "ı": 241,
      "Ĳ": 242,
      "ĳ": 243,
      "Ĵ": 244,
      "ĵ": 245,
      "Ķ": 246,
      "ķ": 247,
      "ĸ": 248,
      "Ĺ": 249,
      "ĺ": 250,
      "Ļ": 251,
      "ļ": 252,
      "Ľ": 253,
      "ľ": 254,
      "Ŀ": 255,
      "ŀ": 256,
      "Ł": 257,
      "ł": 258,
      "Ń": 259,
      "Ġ\"": 260,
      "\":": 261,
      "me": 262,
      "{\"": 263,
      "čĊ": 264,
      "\",": 265,
      "Ġt": 266,
      "na": 267,
      "ng": 268,
      "\"}": 269,
      "ar": 270,
      "name": 271,
      "Ãª": 272,
      "at": 273,
      "Ã´": 274,
      "Ġ{\"": 275,
      "nt": 276,
      "iÃª": 277,
      "gu": 278,
      "ment": 279,
      "argu": 280,
      "ments": 281,
      "arguments": 282,
      "\"}}": 283,
      "Ã¢": 284,
      "ul": 285,
      "ua": 286,
      "ca": 287,
      "cal": 288,
      "er": 289,
      "ex": 290,
      "es": 291,
      "Ã´ng": 292,
      "res": 293,
      "Ġth": 294,
      "in": 295,
      "Ġk": 296,
      "ate": 297,
      "ch": 298,
      "im": 299,
      "ang": 300,
      "ge": 301,
      "Ġtim": 302,
      "hÃ´ng": 303,
      "Ġc": 304,
      "Ġq": 305,
      "ult": 306,
      "result": 307,
      "Ã¢y": 308,
      "iÃªt": 309,
      "ear": 310,
      "sear": 311,
      "search": 312,
      "ro": 313,
      "Ġv": 314,
      "Ġqua": 315,
      "an": 316,
      "Ãªt": 317,
      "KhÃ´ng": 318,
      "ĠthÃ¢y": 319,
      "ĠkÃªt": 320,
      "on": 321,
      "Äĥ": 322,
      "Ġm": 323,
      "call": 324,
      "Æ¡": 325,
      "ia": 326,
      "Ã´i": 327,
      "Æ°": 328,
      "ion": 329,
      "cul": 330,
      "calcul": 331,
      "calculate": 332,
      "ĠN": 333,
      "ViÃªt": 334,
      "gia": 335,
      "ĠViÃªt": 336,
      "erro": 337,
      "error": 338,
      "ol": 339,
      "ool": 340,
      "tool": 341,
      "iÃªng": 342,
      "th": 343,
      "Ha": 344,
      "ĠNÃ´i": 345,
      "lo": 346,
      "no": 347,
      "so": 348,
      "LS": 349,
      "OO": 350,
      "TOO": 351,
      "ad": 352,
      "ce": 353,
      "dex": 354,
      "he": 355,
      "lang": 356,
      "rce": 357,
      "tex": 358,
      "tiÃªng": 359,
      "tad": 360,
      "urce": 361,
      "metad": 362,
      "nano": 363,
      "\"},": 364,
      "ata": 365,
      "uage": 366,
      "index": 367,
      "source": 368,
      "TOOLS": 369,
      "language": 370,
      "text": 371,
      "metadata": 372,
      "Ã¢n": 373,
      "Æ¡i": 374,
      "Äĳ": 375,
      "Ġn": 376,
      "Ġng": 377,
      "00": 378,
      "</": 379,
      "ap": 380,
      "eat": 381,
      "her": 382,
      "late": 383,
      "ran": 384,
      "su": 385,
      "slate": 386,
      "tran": 387,
      "weat": 388,
      "get": 389,
      "translate": 390,
      "weather": 391,
      "iz": 392,
      "mm": 393,
      "ariz": 394,
      "api": 395,
      "summ": 396,
      "arize": 397,
      "summarize": 398,
      "Ġvang": 399,
      "Ġl": 400,
      "qu": 401,
      "ery": 402,
      "query": 403,
      "oan": 404,
      "pres": 405,
      "sion": 406,
      "expres": 407,
      "expression": 408,
      "ai": 409,
      "ay": 410,
      "ink": 411,
      "Äĥn": 412,
      "think": 413,
      "Ġco": 414,
      "uc": 415,
      "Ġngay": 416,
      "oi": 417,
      "Ġh": 418,
      "Æ°a": 419,
      "duc": 420,
      "ĠcÃ¢n": 421,
      "ĠvÄĥn": 422,
      "Ġgia": 423,
      "ĠHa": 424,
      "Äĥt": 425,
      "SD": 426,
      "USD": 427,
      "dp": 428,
      "en": 429,
      "ld": 430,
      "llo": 431,
      "om": 432,
      "or": 433,
      "pro": 434,
      "ts": 435,
      "ty": 436,
      "wor": 437,
      "ĠUSD": 438,
      "Ġwor": 439,
      "Ġ\"/": 440,
      "ĠtiÃªt": 441,
      "ĠtÄĥt": 442,
      "Ġtom": 443,
      "Ġmai": 444,
      "ĠmÆ°a": 445,
      "thÆ¡i": 446,
      "hello": 447,
      "Äĳoan": 448,
      "Ġnhe": 449,
      "oint": 450,
      "ducts": 451,
      "dpoint": 452,
      "endpoint": 453,
      "products": 454,
      "Ġworld": 455,
      "cat": 456,
      "locat": 457,
      "location": 458,
      "ĠÄĳ": 459,
      "Ġtin": 460,
      "Ġla": 461,
      "Ġb": 462,
      "[/": 463,
      "Ġtr": 464,
      "ĠthÃ´ng": 465,
      "Ġ1": 466,
      "iÃªm": 467,
      "cÃ¢n": 468,
      "Ġsearch": 469,
      "Ġcalculate": 470,
      "Ġ[/": 471,
      "ĠkiÃªm": 472,
      "0000": 473,
      "Ġnh": 474,
      "Æ°Æ¡": 475,
      "Ġch": 476,
      "Ã¢t": 477,
      "iÃªu": 478,
      "ĠngÆ°": 479,
      "ph": 480,
      "Ġph": 481,
      "Ġva": 482,
      "ĠhÃ´": 483,
      "Ġna": 484,
      "Gia": 485,
      "Ġs": 486,
      "ĠcÃ´ng": 487,
      "Äĥng": 488,
      "Ġnay": 489,
      "am": 490,
      "ri": 491,
      "Ġd": 492,
      "Ġcua": 493,
      "ĠhÃ´m": 494,
      "inh": 495,
      "Ġcu": 496,
      "ĠnhÃ¢t": 497,
      "ĠmÆ¡i": 498,
      "Ġtinh": 499,
      "ĠbÄĥng": 500,
      "20000": 501,
      "85": 502,
      "NO": 503,
      "cri": 504,
      "des": 505,
      "pt": 506,
      "tim": 507,
      "Ġ*": 508,
      "Ġ/": 509,
      "ĠTOOLS": 510,
      "Ġ85": 511,
      "Ġtoan": 512,
      "iÃªn": 513,
      "ĠtriÃªu": 514,
      "Ġ15": 515,
      "Ġ100": 516,
      "2000000": 517,
      "cript": 518,
      "descript": 519,
      "description": 520,
      "Æ°Æ¡ng": 521,
      "Ġg": 522,
      "Ãªn": 523,
      "ĠkhÃ´ng": 524,
      "ĠNam": 525,
      "ĠngÆ°Æ¡i": 526,
      "ao": 527,
      "Æ°Æ¡c": 528,
      "oc": 529,
      "TÃ´i": 530,
      "Ġcon": 531,
      "Äĥm": 532,
      "uy": 533,
      "Ġca": 534,
      "Æ°c": 535,
      "Ġngh": 536,
      "Ġgi": 537,
      "Ã´t": 538,
      "ĠthÃª": 539,
      "ĠC": 540,
      "Ã´n": 541,
      "Ġban": 542,
      "ĠtÃ¢": 543,
      "Æ°ng": 544,
      "Ġhoc": 545,
      "ĠÄĳÃ´ng": 546,
      "14": 547,
      "19": 548,
      "24": 549,
      "29": 550,
      "34": 551,
      "39": 552,
      "54": 553,
      "59": 554,
      "64": 555,
      "69": 556,
      "ung": 557,
      "Ġx": 558,
      "ĠÆ¡": 559,
      "ĠthÆ°c": 560,
      "Ġcho": 561,
      "uyÃªn": 562,
      "oa": 563,
      "ĠngÃ´n": 564,
      "ĠÄĳÃª": 565,
      "ĠÄĳÆ°Æ¡c": 566,
      "74": 567,
      "79": 568,
      "84": 569,
      "89": 570,
      "ach": 571,
      "ĠtiÃªng": 572,
      "Ġkh": 573,
      "Ġqu": 574,
      "anh": 575,
      "ĠmÃ´i": 576,
      "ĠnÆ°Æ¡c": 577,
      "ĠnhÃ¢n": 578,
      "ĠphÃ´": 579,
      "ĠsÆ°": 580,
      "04": 581,
      "09": 582,
      "ong": 583,
      "Ġr": 584,
      "ĠtÃ´": 585,
      "Ġtao": 586,
      "Ã¢m": 587,
      "ĠmÃ´t": 588,
      "ĠnÄĥm": 589,
      "Ġlai": 590,
      "ĠhÃ´i": 591,
      "ĠhÆ°Æ¡ng": 592,
      "ĠbiÃªt": 593,
      "ĠtriÃªn": 594,
      "Ġphat": 595,
      "ĠCh": 596,
      "ĠtÃ¢p": 597,
      "ĠB": 598,
      "ĠL": 599,
      "ĠX": 600,
      "Ġtro": 601,
      "ĠvÆ¡i": 602,
      "Äĥc": 603,
      "ĠmÃ´": 604,
      "Ġhinh": 605,
      "ĠÄĳÃ´": 606,
      "ĠtruyÃªn": 607,
      "ĠdÃ¢n": 608,
      "Ġnghin": 609,
      "Ġtrong": 610,
      "44": 611,
      "Ae": 612,
      "ab": 613,
      "ep": 614,
      "nh": 615,
      "up": 616,
      "vy": 617,
      "ĠH": 618,
      "ĠÃ¢m": 619,
      "ĠtÆ°Æ¡ng": 620,
      "ĠtÃ´t": 621,
      "Ã¢u": 622,
      "Ġthu": 623,
      "Ġthay": 624,
      "ĠcÃ´": 625,
      "Ġvi": 626,
      "Æ¡n": 627,
      "Æ°Æ¡i": 628,
      "ĠnÃ´i": 629,
      "ĠlÆ¡i": 630,
      "Ġhoa": 631,
      "ĠÄĳa": 632,
      "ĠÄĳang": 633,
      "ĠÄĳep": 634,
      "Ġbinh": 635,
      "ĠbiÃªn": 636,
      "ĠbÃªn": 637,
      "Ġtra": 638,
      "Ġtrung": 639,
      "ĠchÄĥm": 640,
      "Ġphu": 641,
      "Ġdai": 642,
      "Ġcach": 643,
      "Ġnghia": 644,
      "ĠgiÆ¡i": 645,
      "Ġgiup": 646,
      "ĠtÃ¢m": 647,
      "ĠLab": 648,
      "Aevy": 649,
      "Aevynt": 650,
      "49": 651,
      "Hoc": 652,
      "Pl": 653,
      "Th": 654,
      "TiÃªng": 655,
      "Tri": 656,
      "au": 657,
      "gr": 658,
      "igr": 659,
      "ui": 660,
      "uÃª": 661,
      "ĠT": 662,
      "Ġy": 663,
      "Ġlo": 664,
      "ĠÄĥn": 665,
      "Ġduc": 666,
      "ĠPl": 667,
      "Ġtang": 668,
      "ĠtÃ´i": 669,
      "ĠtÃ¢n": 670,
      "ĠtuÃª": 671,
      "Ã´c": 672,
      "iÃªc": 673,
      "Ġthanh": 674,
      "ĠcÃ¢y": 675,
      "ĠvÃª": 676,
      "ĠviÃªc": 677,
      "ank": 678,
      "Äĥp": 679,
      "Ġmon": 680,
      "Ġmoi": 681,
      "ĠhiÃªn": 682,
      "ĠÄĳÃ´i": 683,
      "ĠÄĳÆ°Æ¡ng": 684,
      "ĠÄĳao": 685,
      "Ġlam": 686,
      "Ġba": 687,
      "ĠtrÆ¡i": 688,
      "ĠtrÃªn": 689,
      "ĠnhiÃªu": 690,
      "Ġchi": 691,
      "Ġchinh": 692,
      "ĠchÄĥc": 693,
      "Ġsinh": 694,
      "Ġsach": 695,
      "ĠdÆ°ng": 696,
      "Ġcanh": 697,
      "ĠnghÃª": 698,
      "ĠCÃ´ng": 699,
      "ĠxÃ¢y": 700,
      "Ġkhi": 701,
      "ĠquÃ´c": 702,
      "Ġra": 703,
      "ĠChu": 704,
      "ĠBigr": 705,
      "ĠXa": 706,
      "ĠPlank": 707,
      "ĠBigram": 708,
      "Ch": 709,
      "Con": 710,
      "Hoa": 711,
      "Kh": 712,
      "Lao": 713,
      "MÃ´i": 714,
      "MÄĥt": 715,
      "Minh": 716,
      "MÃ´t": 717,
      "Ng": 718,
      "Ph": 719,
      "RÃ¢t": 720,
      "SÃ´ng": 721,
      "Sach": 722,
      "Xin": 723,
      "hÆ°ng": 724,
      "ich": 725,
      "uÃ´ng": 726,
      "uÃ´i": 727,
      "uÃ¢n": 728,
      "Ġme": 729,
      "Ġno": 730,
      "Ġap": 731,
      "ĠTÃ´i": 732,
      "ĠAevynt": 733,
      "ĠMinh": 734,
      "ĠRÃ¢t": 735,
      "ĠtÃª": 736,
      "ĠtÃ¢y": 737,
      "ĠtÆ°": 738,
      "Ãªu": 739,
      "Ġthang": 740,
      "ĠthiÃªng": 741,
      "ĠthÃ¢t": 742,
      "Ġkinh": 743,
      "ĠcÃ¢u": 744,
      "Ġquy": 745,
      "ĠquyÃªn": 746,
      "ĠvÃ´": 747,
      "Ġvong": 748,
      "Ġvui": 749,
      "Ġquan": 750,
      "Ġmoc": 751,
      "ĠmÆ°Æ¡i": 752,
      "Æ°u": 753,
      "ĠnuÃ´i": 754,
      "ĠlÃ´i": 755,
      "ĠliÃªng": 756,
      "ĠlÄĥn": 757,
      "ĠliÃªu": 758,
      "ĠlÆ°c": 759,
      "ĠlÆ¡n": 760,
      "ĠhÃª": 761,
      "Ġhang": 762,
      "Ġhay": 763,
      "ĠhÆ¡n": 764,
      "ĠÄĳo": 765,
      "ĠÄĳiÃªu": 766,
      "ĠÄĳinh": 767,
      "ĠbÆ¡": 768,
      "Ġtri": 769,
      "Ġtrai": 770,
      "ĠtrÄĥm": 771,
      "ĠnhÆ°ng": 772,
      "Ġchay": 773,
      "Ġchao": 774,
      "ĠchÆ°c": 775,
      "Ġphai": 776,
      "ĠphÆ°Æ¡ng": 777,
      "ĠhÃ´n": 778,
      "Giao": 779,
      "ĠsÃ´": 780,
      "ĠsÃ´ng": 781,
      "Ġsang": 782,
      "Ġsau": 783,
      "ĠdÆ°": 784,
      "ĠdÆ°Æ¡ng": 785,
      "Ġdung": 786,
      "ĠgÄĥng": 787,
      "ĠgÄĥp": 788,
      "Ġcam": 789,
      "Ġgian": 790,
      "Ġxa": 791,
      "ĠÄĳÃªm": 792,
      "Ġkho": 793,
      "Ġkhat": 794,
      "ĠquÃª": 795,
      "ĠtÃ´c": 796,
      "ĠChi": 797,
      "ĠXin": 798,
      "ĠHÃ´": 799,
      "ĠHÃ´ng": 800,
      "Thanh": 801,
      "ĠyÃªu": 802,
      "Ġloai": 803,
      "Chao": 804,
      "Khoa": 805,
      "PhÆ¡": 806,
      "Ġmeo": 807,
      "Ġnoi": 808,
      "114": 809,
      "119": 810,
      "124": 811,
      "129": 812,
      "134": 813,
      "139": 814,
      "154": 815,
      "159": 816,
      "164": 817,
      "169": 818,
      "174": 819,
      "179": 820,
      "184": 821,
      "189": 822,
      "104": 823,
      "109": 824,
      "214": 825,
      "219": 826,
      "224": 827,
      "229": 828,
      "234": 829,
      "239": 830,
      "254": 831,
      "259": 832,
      "264": 833,
      "269": 834,
      "274": 835,
      "279": 836,
      "284": 837,
      "289": 838,
      "204": 839,
      "209": 840,
      "314": 841,
      "319": 842,
      "324": 843,
      "329": 844,
      "334": 845,
      "339": 846,
      "354": 847,
      "359": 848,
      "364": 849,
      "369": 850,
      "374": 851,
      "379": 852,
      "384": 853,
      "389": 854,
      "304": 855,
      "309": 856,
      "414": 857,
      "419": 858,
      "424": 859,
      "429": 860,
      "434": 861,
      "439": 862,
      "454": 863,
      "459": 864,
      "464": 865,
      "469": 866,
      "474": 867,
      "479": 868,
      "484": 869,
      "489": 870,
      "404": 871,
      "409": 872,
      "514": 873,
      "519": 874,
      "524": 875,
      "529": 876,
      "534": 877,
      "539": 878,
      "554": 879,
      "559": 880,
      "564": 881,
      "569": 882,
      "574": 883,
      "579": 884,
      "584": 885,
      "589": 886,
      "504": 887,
      "509": 888,
      "614": 889,
      "619": 890,
      "624": 891,
      "629": 892,
      "634": 893,
      "639": 894,
      "654": 895,
      "659": 896,
      "664": 897,
      "669": 898,
      "674": 899,
      "679": 900,
      "684": 901,
      "689": 902,
      "604": 903,
      "609": 904,
      "94": 905,
      "99": 906,
      "Ao": 907,
      "Anh": 908,
      "BiÃªn": 909,
      "Banh": 910,
      "Ca": 911,
      "CÃ´ng": 912,
      "Cam": 913,
      "CÃ¢u": 914,
      "Dong": 915,
      "Long": 916,
      "Mua": 917,
      "NÆ°Æ¡c": 918,
      "Nui": 919,
      "NhÆ°ng": 920,
      "Tr": 921,
      "Tam": 922,
      "VÄĥn": 923,
      "em": 924,
      "eo": 925,
      "et": 926,
      "ing": 927,
      "int": 928,
      "net": 929,
      "og": 930,
      "oai": 931,
      "uÃ´n": 932,
      "ÄĲ": 933,
      "ĠÃª": 934,
      "Ġso": 935,
      "Ġsu": 936,
      "ĠAnh": 937,
      "Ġem": 938,
      "Ġint": 939,
      "ĠuÃ´n": 940,
      "ĠÄĲ": 941,
      "ĠtÆ¡i": 942,
      "Ġtai": 943,
      "Ġtuc": 944,
      "ĠtÄĥng": 945,
      "ĠtiÃªn": 946,
      "ĠtÃ´n": 947,
      "Ġtach": 948,
      "ĠtÆ°Æ¡i": 949,
      "Ġtich": 950,
      "Ã¢c": 951,
      "Ã¢p": 952,
      "ernet": 953,
      "ĠthÃ¢n": 954,
      "ĠthÆ¡i": 955,
      "ĠthÆ°a": 956,
      "ĠthÆ°Æ¡ng": 957,
      "ĠthÄĥm": 958,
      "Ġthich": 959,
      "Ġtheo": 960,
      "Ġthoai": 961,
      "ining": 962,
      "Ġcat": 963,
      "ĠcÆ¡": 964,
      "ĠcÃ¢p": 965,
      "Ġvu": 966,
      "ĠvÃ¢n": 967,
      "Ġvinh": 968,
      "ĠvÆ°ng": 969,
      "Ġvung": 970,
      "Ġquang": 971,
      "Ġma": 972,
      "Ġmi": 973,
      "Ġmua": 974,
      "ĠmÆ¡": 975,
      "ĠmiÃªng": 976,
      "ĠmiÃªn": 977,
      "ĠmÃ¢m": 978,
      "ĠNhÆ°ng": 979,
      "ĠnÃ´ng": 980,
      "Ġnon": 981,
      "ĠnÆ°": 982,
      "ĠnÆ¡i": 983,
      "ĠnÃªn": 984,
      "Ġngu": 985,
      "Ġngan": 986,
      "Ġngon": 987,
      "ĠnguyÃªn": 988,
      "Ġlua": 989,
      "ĠlÆ°Æ¡": 990,
      "ĠlÆ°Æ¡c": 991,
      "ĠlÄĥm": 992,
      "ĠluyÃªn": 993,
      "Ġlanh": 994,
      "Ġhai": 995,
      "Ġhoi": 996,
      "ĠhiÃªu": 997,
      "Ġhung": 998,
      "ĠhuÃ¢n": 999,
      "ĠhÆ°u": 1000,
      "Ġgiao": 1001,
      "ĠÄĳon": 1002,
      "ĠÄĳÆ¡i": 1003,
      "ĠÄĳÃ¢t": 1004,
      "ĠÄĳÄĥc": 1005,
      "ĠÄĳÃ¢u": 1006,
      "ĠÄĳÄĥp": 1007,
      "Ġbe": 1008,
      "Ġbo": 1009,
      "ĠbÃ´": 1010,
      "ĠbÃ´i": 1011,
      "Ġbao": 1012,
      "ĠbÃ¢c": 1013,
      "Ġtre": 1014,
      "Ġtru": 1015,
      "Ġtrang": 1016,
      "ĠtrÆ¡": 1017,
      "ĠtrÆ°Æ¡ng": 1018,
      "Ġtruy": 1019,
      "ĠtrÆ°ng": 1020,
      "Ġtrach": 1021,
      "Ġnho": 1022,
      "ĠnhÆ°": 1023,
      "ĠnhiÃªm": 1024,
      "ĠnhiÃªn": 1025,
      "Ġnhau": 1026,
      "Ġchu": 1027,
      "Ġchin": 1028,
      "ĠchÃ¢n": 1029,
      "ĠchÃ¢t": 1030,
      "ĠchiÃªn": 1031,
      "Ġchung": 1032,
      "ĠphÃª": 1033,
      "Ġphia": 1034,
      "ĠphÃ¢n": 1035,
      "Ġphuc": 1036,
      "Ġphong": 1037,
      "ĠphÃ¢m": 1038,
      "Ġnan": 1039,
      "Ġsa": 1040,
      "ĠsÃ´i": 1041,
      "ĠsÆ°a": 1042,
      "Ġdang": 1043,
      "Ġdao": 1044,
      "Ġdoc": 1045,
      "Ġduy": 1046,
      "Ġdog": 1047,
      "ĠgÄĥn": 1048,
      "Ġnghi": 1049,
      "ĠgiÆ°a": 1050,
      "ĠCÆ°u": 1051,
      "144": 1052,
      "149": 1053,
      "194": 1054,
      "199": 1055,
      "244": 1056,
      "249": 1057,
      "294": 1058,
      "299": 1059,
      "344": 1060,
      "349": 1061,
      "394": 1062,
      "399": 1063,
      "544": 1064,
      "549": 1065,
      "594": 1066,
      "599": 1067,
      "644": 1068,
      "649": 1069,
      "694": 1070,
      "699": 1071,
      "Ġxuc": 1072,
      "ĠxÆ°a": 1073,
      "ĠxuÃ´ng": 1074,
      "ĠxuÃ¢n": 1075,
      "ĠÆ¡n": 1076,
      "ĠquÃ¢y": 1077,
      "ĠquÃ¢n": 1078,
      "ĠsÆ°Æ¡i": 1079,
      "ĠrÆ¡i": 1080,
      "ĠrÆ°ng": 1081,
      "ĠruÃ´ng": 1082,
      "ĠChuc": 1083,
      "ĠBiÃªn": 1084,
      "ĠBÄĥc": 1085,
      "ĠLong": 1086,
      "444": 1087,
      "449": 1088,
      "Ġtraining": 1089,
      "494": 1090,
      "499": 1091,
      "ThiÃªn": 1092,
      "ĠTÃ´": 1093,
      "ĠTÃ¢y": 1094,
      "ĠTÃªt": 1095,
      "ĠyÃªn": 1096,
      "NgÃ´n": 1097,
      "NgÆ°Æ¡i": 1098,
      "Tre": 1099,
      "ĠÃªm": 1100,
      "Ġsoc": 1101,
      "ĠsuÃ¢t": 1102,
      "Ġinternet": 1103,
      "ĠÄĲÃ´ng": 1104,
      "ĠlÆ°Æ¡n": 1105
    },
    "merges": [
      [
        "Ġ",
        "\""
      ],
      [
        "\"",
        ":"
      ],
      [
        "m",
        "e"
      ],
      [
        "{",
        "\""
      ],
      [
        "č",
        "Ċ"
      ],
      [
        "\"",
        ","
      ],
      [
        "Ġ",
        "t"
      ],
      [
        "n",
        "a"
      ],
      [
        "n",
        "g"
      ],
      [
        "\"",
        "}"
      ],
      [
        "a",
        "r"
      ],
      [
        "na",
        "me"
      ],
      [
        "Ã",
        "ª"
      ],
      [
        "a",
        "t"
      ],
      [
        "Ã",
        "´"
      ],
      [
        "Ġ",
        "{\""
      ],
      [
        "n",
        "t"
      ],
      [
        "i",
        "Ãª"
      ],
      [
        "g",
        "u"
      ],
      [
        "me",
        "nt"
      ],
      [
        "ar",
        "gu"
      ],
      [
        "ment",
        "s"
      ],
      [
        "argu",
        "ments"
      ],
      [
        "\"}",
        "}"
      ],
      [
        "Ã",
        "¢"
      ],
      [
        "u",
        "l"
      ],
      [
        "u",
        "a"
      ],
      [
        "c",
        "a"
      ],
      [
        "ca",
        "l"
      ],
      [
        "e",
        "r"
      ],
      [
        "e",
        "x"
      ],
      [
        "e",
        "s"
      ],
      [
        "Ã´",
        "ng"
      ],
      [
        "r",
        "es"
      ],
      [
        "Ġt",
        "h"
      ],
      [
        "i",
        "n"
      ],
      [
        "Ġ",
        "k"
      ],
      [
        "at",
        "e"
      ],
      [
        "c",
        "h"
      ],
      [
        "i",
        "m"
      ],
      [
        "a",
        "ng"
      ],
      [
        "g",
        "e"
      ],
      [
        "Ġt",
        "im"
      ],
      [
        "h",
        "Ã´ng"
      ],
      [
        "Ġ",
        "c"
      ],
      [
        "Ġ",
        "q"
      ],
      [
        "ul",
        "t"
      ],
      [
        "res",
        "ult"
      ],
      [
        "Ã¢",
        "y"
      ],
      [
        "iÃª",
        "t"
      ],
      [
        "e",
        "ar"
      ],
      [
        "s",
        "ear"
      ],
      [
        "sear",
        "ch"
      ],
      [
        "r",
        "o"
      ],
      [
        "Ġ",
        "v"
      ],
      [
        "Ġq",
        "ua"
      ],
      [
        "a",
        "n"
      ],
      [
        "Ãª",
        "t"
      ],
      [
        "K",
        "hÃ´ng"
      ],
      [
        "Ġth",
        "Ã¢y"
      ],
      [
        "Ġk",
        "Ãªt"
      ],
      [
        "o",
        "n"
      ],
      [
        "Ä",
        "ĥ"
      ],
      [
        "Ġ",
        "m"
      ],
      [
        "cal",
        "l"
      ],
      [
        "Æ",
        "¡"
      ],
      [
        "i",
        "a"
      ],
      [
        "Ã´",
        "i"
      ],
      [
        "Æ",
        "°"
      ],
      [
        "i",
        "on"
      ],
      [
        "c",
        "ul"
      ],
      [
        "cal",
        "cul"
      ],
      [
        "calcul",
        "ate"
      ],
      [
        "Ġ",
        "N"
      ],
      [
        "V",
        "iÃªt"
      ],
      [
        "g",
        "ia"
      ],
      [
        "Ġ",
        "ViÃªt"
      ],
      [
        "er",
        "ro"
      ],
      [
        "erro",
        "r"
      ],
      [
        "o",
        "l"
      ],
      [
        "o",
        "ol"
      ],
      [
        "t",
        "ool"
      ],
      [
        "iÃª",
        "ng"
      ],
      [
        "t",
        "h"
      ],
      [
        "H",
        "a"
      ],
      [
        "ĠN",
        "Ã´i"
      ],
      [
        "l",
        "o"
      ],
      [
        "n",
        "o"
      ],
      [
        "s",
        "o"
      ],
      [
        "L",
        "S"
      ],
      [
        "O",
        "O"
      ],
      [
        "T",
        "OO"
      ],
      [
        "a",
        "d"
      ],
      [
        "c",
        "e"
      ],
      [
        "d",
        "ex"
      ],
      [
        "h",
        "e"
      ],
      [
        "l",
        "ang"
      ],
      [
        "r",
        "ce"
      ],
      [
        "t",
        "ex"
      ],
      [
        "t",
        "iÃªng"
      ],
      [
        "t",
        "ad"
      ],
      [
        "u",
        "rce"
      ],
      [
        "me",
        "tad"
      ],
      [
        "na",
        "no"
      ],
      [
        "\"}",
        ","
      ],
      [
        "at",
        "a"
      ],
      [
        "ua",
        "ge"
      ],
      [
        "in",
        "dex"
      ],
      [
        "so",
        "urce"
      ],
      [
        "TOO",
        "LS"
      ],
      [
        "lang",
        "uage"
      ],
      [
        "tex",
        "t"
      ],
      [
        "metad",
        "ata"
      ],
      [
        "Ã¢",
        "n"
      ],
      [
        "Æ¡",
        "i"
      ],
      [
        "Ä",
        "ĳ"
      ],
      [
        "Ġ",
        "n"
      ],
      [
        "Ġ",
        "ng"
      ],
      [
        "0",
        "0"
      ],
      [
        "<",
        "/"
      ],
      [
        "a",
        "p"
      ],
      [
        "e",
        "at"
      ],
      [
        "h",
        "er"
      ],
      [
        "l",
        "ate"
      ],
      [
        "r",
        "an"
      ],
      [
        "s",
        "u"
      ],
      [
        "s",
        "late"
      ],
      [
        "t",
        "ran"
      ],
      [
        "w",
        "eat"
      ],
      [
        "ge",
        "t"
      ],
      [
        "tran",
        "slate"
      ],
      [
        "weat",
        "her"
      ],
      [
        "i",
        "z"
      ],
      [
        "m",
        "m"
      ],
      [
        "ar",
        "iz"
      ],
      [
        "ap",
        "i"
      ],
      [
        "su",
        "mm"
      ],
      [
        "ariz",
        "e"
      ],
      [
        "summ",
        "arize"
      ],
      [
        "Ġv",
        "ang"
      ],
      [
        "Ġ",
        "l"
      ],
      [
        "q",
        "u"
      ],
      [
        "er",
        "y"
      ],
      [
        "qu",
        "ery"
      ],
      [
        "o",
        "an"
      ],
      [
        "p",
        "res"
      ],
      [
        "s",
        "ion"
      ],
      [
        "ex",
        "pres"
      ],
      [
        "expres",
        "sion"
      ],
      [
        "a",
        "i"
      ],
      [
        "a",
        "y"
      ],
      [
        "in",
        "k"
      ],
      [
        "Äĥ",
        "n"
      ],
      [
        "th",
        "ink"
      ],
      [
        "Ġc",
        "o"
      ],
      [
        "u",
        "c"
      ],
      [
        "Ġng",
        "ay"
      ],
      [
        "o",
        "i"
      ],
      [
        "Ġ",
        "h"
      ],
      [
        "Æ°",
        "a"
      ],
      [
        "d",
        "uc"
      ],
      [
        "Ġc",
        "Ã¢n"
      ],
      [
        "Ġv",
        "Äĥn"
      ],
      [
        "Ġ",
        "gia"
      ],
      [
        "Ġ",
        "Ha"
      ],
      [
        "Äĥ",
        "t"
      ],
      [
        "S",
        "D"
      ],
      [
        "U",
        "SD"
      ],
      [
        "d",
        "p"
      ],
      [
        "e",
        "n"
      ],
      [
        "l",
        "d"
      ],
      [
        "l",
        "lo"
      ],
      [
        "o",
        "m"
      ],
      [
        "o",
        "r"
      ],
      [
        "p",
        "ro"
      ],
      [
        "t",
        "s"
      ],
      [
        "t",
        "y"
      ],
      [
        "w",
        "or"
      ],
      [
        "Ġ",
        "USD"
      ],
      [
        "Ġ",
        "wor"
      ],
      [
        "Ġ\"",
        "/"
      ],
      [
        "Ġt",
        "iÃªt"
      ],
      [
        "Ġt",
        "Äĥt"
      ],
      [
        "Ġt",
        "om"
      ],
      [
        "Ġm",
        "ai"
      ],
      [
        "Ġm",
        "Æ°a"
      ],
      [
        "th",
        "Æ¡i"
      ],
      [
        "he",
        "llo"
      ],
      [
        "Äĳ",
        "oan"
      ],
      [
        "Ġn",
        "he"
      ],
      [
        "oi",
        "nt"
      ],
      [
        "duc",
        "ts"
      ],
      [
        "dp",
        "oint"
      ],
      [
        "en",
        "dpoint"
      ],
      [
        "pro",
        "ducts"
      ],
      [
        "Ġwor",
        "ld"
      ],
      [
        "c",
        "at"
      ],
      [
        "lo",
        "cat"
      ],
      [
        "locat",
        "ion"
      ],
      [
        "Ġ",
        "Äĳ"
      ],
      [
        "Ġt",
        "in"
      ],
      [
        "Ġl",
        "a"
      ],
      [
        "Ġ",
        "b"
      ],
      [
        "[",
        "/"
      ],
      [
        "Ġt",
        "r"
      ],
      [
        "Ġth",
        "Ã´ng"
      ],
      [
        "Ġ",
        "1"
      ],
      [
        "iÃª",
        "m"
      ],
      [
        "c",
        "Ã¢n"
      ],
      [
        "Ġ",
        "search"
      ],
      [
        "Ġ",
        "calculate"
      ],
      [
        "Ġ",
        "[/"
      ],
      [
        "Ġk",
        "iÃªm"
      ],
      [
        "00",
        "00"
      ],
      [
        "Ġn",
        "h"
      ],
      [
        "Æ°",
        "Æ¡"
      ],
      [
        "Ġ",
        "ch"
      ],
      [
        "Ã¢",
        "t"
      ],
      [
        "iÃª",
        "u"
      ],
      [
        "Ġng",
        "Æ°"
      ],
      [
        "p",
        "h"
      ],
      [
        "Ġ",
        "ph"
      ],
      [
        "Ġv",
        "a"
      ],
      [
        "Ġh",
        "Ã´"
      ],
      [
        "Ġ",
        "na"
      ],
      [
        "G",
        "ia"
      ],
      [
        "Ġ",
        "s"
      ],
      [
        "Ġc",
        "Ã´ng"
      ],
      [
        "Äĥ",
        "ng"
      ],
      [
        "Ġna",
        "y"
      ],
      [
        "a",
        "m"
      ],
      [
        "r",
        "i"
      ],
      [
        "Ġ",
        "d"
      ],
      [
        "Ġc",
        "ua"
      ],
      [
        "ĠhÃ´",
        "m"
      ],
      [
        "in",
        "h"
      ],
      [
        "Ġc",
        "u"
      ],
      [
        "Ġnh",
        "Ã¢t"
      ],
      [
        "Ġm",
        "Æ¡i"
      ],
      [
        "Ġtin",
        "h"
      ],
      [
        "Ġb",
        "Äĥng"
      ],
      [
        "2",
        "0000"
      ],
      [
        "8",
        "5"
      ],
      [
        "N",
        "O"
      ],
      [
        "c",
        "ri"
      ],
      [
        "d",
        "es"
      ],
      [
        "p",
        "t"
      ],
      [
        "t",
        "im"
      ],
      [
        "Ġ",
        "*"
      ],
      [
        "Ġ",
        "/"
      ],
      [
        "Ġ",
        "TOOLS"
      ],
      [
        "Ġ",
        "85"
      ],
      [
        "Ġt",
        "oan"
      ],
      [
        "iÃª",
        "n"
      ],
      [
        "Ġtr",
        "iÃªu"
      ],
      [
        "Ġ1",
        "5"
      ],
      [
        "Ġ1",
        "00"
      ],
      [
        "20000",
        "00"
      ],
      [
        "cri",
        "pt"
      ],
      [
        "des",
        "cript"
      ],
      [
        "descript",
        "ion"
      ],
      [
        "Æ°Æ¡",
        "ng"
      ],
      [
        "Ġ",
        "g"
      ],
      [
        "Ãª",
        "n"
      ],
      [
        "Ġk",
        "hÃ´ng"
      ],
      [
        "ĠN",
        "am"
      ],
      [
        "ĠngÆ°",
        "Æ¡i"
      ],
      [
        "a",
        "o"
      ],
      [
        "Æ°Æ¡",
        "c"
      ],
      [
        "o",
        "c"
      ],
      [
        "T",
        "Ã´i"
      ],
      [
        "Ġc",
        "on"
      ],
      [
        "Äĥ",
        "m"
      ],
      [
        "u",
        "y"
      ],
      [
        "Ġ",
        "ca"
      ],
      [
        "Æ°",
        "c"
      ],
      [
        "Ġng",
        "h"
      ],
      [
        "Ġg",
        "i"
      ],
      [
        "Ã´",
        "t"
      ],
      [
        "Ġth",
        "Ãª"
      ],
      [
        "Ġ",
        "C"
      ],
      [
        "Ã´",
        "n"
      ],
      [
        "Ġb",
        "an"
      ],
      [
        "Ġt",
        "Ã¢"
      ],
      [
        "Æ°",
        "ng"
      ],
      [
        "Ġh",
        "oc"
      ],
      [
        "ĠÄĳ",
        "Ã´ng"
      ],
      [
        "1",
        "4"
      ],
      [
        "1",
        "9"
      ],
      [
        "2",
        "4"
      ],
      [
        "2",
        "9"
      ],
      [
        "3",
        "4"
      ],
      [
        "3",
        "9"
      ],
      [
        "5",
        "4"
      ],
      [
        "5",
        "9"
      ],
      [
        "6",
        "4"
      ],
      [
        "6",
        "9"
      ],
      [
        "u",
        "ng"
      ],
      [
        "Ġ",
        "x"
      ],
      [
        "Ġ",
        "Æ¡"
      ],
      [
        "Ġth",
        "Æ°c"
      ],
      [
        "Ġch",
        "o"
      ],
      [
        "uy",
        "Ãªn"
      ],
      [
        "o",
        "a"
      ],
      [
        "Ġng",
        "Ã´n"
      ],
      [
        "ĠÄĳ",
        "Ãª"
      ],
      [
        "ĠÄĳ",
        "Æ°Æ¡c"
      ],
      [
        "7",
        "4"
      ],
      [
        "7",
        "9"
      ],
      [
        "8",
        "4"
      ],
      [
        "8",
        "9"
      ],
      [
        "a",
        "ch"
      ],
      [
        "Ġt",
        "iÃªng"
      ],
      [
        "Ġk",
        "h"
      ],
      [
        "Ġq",
        "u"
      ],
      [
        "an",
        "h"
      ],
      [
        "Ġm",
        "Ã´i"
      ],
      [
        "Ġn",
        "Æ°Æ¡c"
      ],
      [
        "Ġnh",
        "Ã¢n"
      ],
      [
        "Ġph",
        "Ã´"
      ],
      [
        "Ġs",
        "Æ°"
      ],
      [
        "0",
        "4"
      ],
      [
        "0",
        "9"
      ],
      [
        "o",
        "ng"
      ],
      [
        "Ġ",
        "r"
      ],
      [
        "Ġt",
        "Ã´"
      ],
      [
        "Ġt",
        "ao"
      ],
      [
        "Ã¢",
        "m"
      ],
      [
        "Ġm",
        "Ã´t"
      ],
      [
        "Ġn",
        "Äĥm"
      ],
      [
        "Ġl",
        "ai"
      ],
      [
        "Ġh",
        "Ã´i"
      ],
      [
        "Ġh",
        "Æ°Æ¡ng"
      ],
      [
        "Ġb",
        "iÃªt"
      ],
      [
        "Ġtr",
        "iÃªn"
      ],
      [
        "Ġph",
        "at"
      ],
      [
        "ĠC",
        "h"
      ],
      [
        "ĠtÃ¢",
        "p"
      ],
      [
        "Ġ",
        "B"
      ],
      [
        "Ġ",
        "L"
      ],
      [
        "Ġ",
        "X"
      ],
      [
        "Ġt",
        "ro"
      ],
      [
        "Ġv",
        "Æ¡i"
      ],
      [
        "Äĥ",
        "c"
      ],
      [
        "Ġm",
        "Ã´"
      ],
      [
        "Ġh",
        "inh"
      ],
      [
        "ĠÄĳ",
        "Ã´"
      ],
      [
        "Ġtr",
        "uyÃªn"
      ],
      [
        "Ġd",
        "Ã¢n"
      ],
      [
        "Ġngh",
        "in"
      ],
      [
        "Ġtro",
        "ng"
      ],
      [
        "4",
        "4"
      ],
      [
        "A",
        "e"
      ],
      [
        "a",
        "b"
      ],
      [
        "e",
        "p"
      ],
      [
        "n",
        "h"
      ],
      [
        "u",
        "p"
      ],
      [
        "v",
        "y"
      ],
      [
        "Ġ",
        "H"
      ],
      [
        "Ġ",
        "Ã¢m"
      ],
      [
        "Ġt",
        "Æ°Æ¡ng"
      ],
      [
        "Ġt",
        "Ã´t"
      ],
      [
        "Ã¢",
        "u"
      ],
      [
        "Ġth",
        "u"
      ],
      [
        "Ġth",
        "ay"
      ],
      [
        "Ġc",
        "Ã´"
      ],
      [
        "Ġv",
        "i"
      ],
      [
        "Æ¡",
        "n"
      ],
      [
        "Æ°",
        "Æ¡i"
      ],
      [
        "Ġn",
        "Ã´i"
      ],
      [
        "Ġl",
        "Æ¡i"
      ],
      [
        "Ġh",
        "oa"
      ],
      [
        "ĠÄĳ",
        "a"
      ],
      [
        "ĠÄĳ",
        "ang"
      ],
      [
        "ĠÄĳ",
        "ep"
      ],
      [
        "Ġb",
        "inh"
      ],
      [
        "Ġb",
        "iÃªn"
      ],
      [
        "Ġb",
        "Ãªn"
      ],
      [
        "Ġtr",
        "a"
      ],
      [
        "Ġtr",
        "ung"
      ],
      [
        "Ġch",
        "Äĥm"
      ],
      [
        "Ġph",
        "u"
      ],
      [
        "Ġd",
        "ai"
      ],
      [
        "Ġca",
        "ch"
      ],
      [
        "Ġngh",
        "ia"
      ],
      [
        "Ġgi",
        "Æ¡i"
      ],
      [
        "Ġgi",
        "up"
      ],
      [
        "ĠtÃ¢",
        "m"
      ],
      [
        "ĠL",
        "ab"
      ],
      [
        "Ae",
        "vy"
      ],
      [
        "Aevy",
        "nt"
      ],
      [
        "4",
        "9"
      ],
      [
        "H",
        "oc"
      ],
      [
        "P",
        "l"
      ],
      [
        "T",
        "h"
      ],
      [
        "T",
        "iÃªng"
      ],
      [
        "T",
        "ri"
      ],
      [
        "a",
        "u"
      ],
      [
        "g",
        "r"
      ],
      [
        "i",
        "gr"
      ],
      [
        "u",
        "i"
      ],
      [
        "u",
        "Ãª"
      ],
      [
        "Ġ",
        "T"
      ],
      [
        "Ġ",
        "y"
      ],
      [
        "Ġ",
        "lo"
      ],
      [
        "Ġ",
        "Äĥn"
      ],
      [
        "Ġ",
        "duc"
      ],
      [
        "Ġ",
        "Pl"
      ],
      [
        "Ġt",
        "ang"
      ],
      [
        "Ġt",
        "Ã´i"
      ],
      [
        "Ġt",
        "Ã¢n"
      ],
      [
        "Ġt",
        "uÃª"
      ],
      [
        "Ã´",
        "c"
      ],
      [
        "iÃª",
        "c"
      ],
      [
        "Ġth",
        "anh"
      ],
      [
        "Ġc",
        "Ã¢y"
      ],
      [
        "Ġv",
        "Ãª"
      ],
      [
        "Ġv",
        "iÃªc"
      ],
      [
        "an",
        "k"
      ],
      [
        "Äĥ",
        "p"
      ],
      [
        "Ġm",
        "on"
      ],
      [
        "Ġm",
        "oi"
      ],
      [
        "Ġh",
        "iÃªn"
      ],
      [
        "ĠÄĳ",
        "Ã´i"
      ],
      [
        "ĠÄĳ",
        "Æ°Æ¡ng"
      ],
      [
        "ĠÄĳ",
        "ao"
      ],
      [
        "Ġla",
        "m"
      ],
      [
        "Ġb",
        "a"
      ],
      [
        "Ġtr",
        "Æ¡i"
      ],
      [
        "Ġtr",
        "Ãªn"
      ],
      [
        "Ġnh",
        "iÃªu"
      ],
      [
        "Ġch",
        "i"
      ],
      [
        "Ġch",
        "inh"
      ],
      [
        "Ġch",
        "Äĥc"
      ],
      [
        "Ġs",
        "inh"
      ],
      [
        "Ġs",
        "ach"
      ],
      [
        "Ġd",
        "Æ°ng"
      ],
      [
        "Ġca",
        "nh"
      ],
      [
        "Ġngh",
        "Ãª"
      ],
      [
        "ĠC",
        "Ã´ng"
      ],
      [
        "Ġx",
        "Ã¢y"
      ],
      [
        "Ġkh",
        "i"
      ],
      [
        "Ġqu",
        "Ã´c"
      ],
      [
        "Ġr",
        "a"
      ],
      [
        "ĠCh",
        "u"
      ],
      [
        "ĠB",
        "igr"
      ],
      [
        "ĠX",
        "a"
      ],
      [
        "ĠPl",
        "ank"
      ],
      [
        "ĠBigr",
        "am"
      ],
      [
        "C",
        "h"
      ],
      [
        "C",
        "on"
      ],
      [
        "H",
        "oa"
      ],
      [
        "K",
        "h"
      ],
      [
        "L",
        "ao"
      ],
      [
        "M",
        "Ã´i"
      ],
      [
        "M",
        "Äĥt"
      ],
      [
        "M",
        "inh"
      ],
      [
        "M",
        "Ã´t"
      ],
      [
        "N",
        "g"
      ],
      [
        "P",
        "h"
      ],
      [
        "R",
        "Ã¢t"
      ],
      [
        "S",
        "Ã´ng"
      ],
      [
        "S",
        "ach"
      ],
      [
        "X",
        "in"
      ],
      [
        "h",
        "Æ°ng"
      ],
      [
        "i",
        "ch"
      ],
      [
        "u",
        "Ã´ng"
      ],
      [
        "u",
        "Ã´i"
      ],
      [
        "u",
        "Ã¢n"
      ],
      [
        "Ġ",
        "me"
      ],
      [
        "Ġ",
        "no"
      ],
      [
        "Ġ",
        "ap"
      ],
      [
        "Ġ",
        "TÃ´i"
      ],
      [
        "Ġ",
        "Aevynt"
      ],
      [
        "Ġ",
        "Minh"
      ],
      [
        "Ġ",
        "RÃ¢t"
      ],
      [
        "Ġt",
        "Ãª"
      ],
      [
        "Ġt",
        "Ã¢y"
      ],
      [
        "Ġt",
        "Æ°"
      ],
      [
        "Ãª",
        "u"
      ],
      [
        "Ġth",
        "ang"
      ],
      [
        "Ġth",
        "iÃªng"
      ],
      [
        "Ġth",
        "Ã¢t"
      ],
      [
        "Ġk",
        "inh"
      ],
      [
        "Ġc",
        "Ã¢u"
      ],
      [
        "Ġq",
        "uy"
      ],
      [
        "Ġq",
        "uyÃªn"
      ],
      [
        "Ġv",
        "Ã´"
      ],
      [
        "Ġv",
        "ong"
      ],
      [
        "Ġv",
        "ui"
      ],
      [
        "Ġqua",
        "n"
      ],
      [
        "Ġm",
        "oc"
      ],
      [
        "Ġm",
        "Æ°Æ¡i"
      ],
      [
        "Æ°",
        "u"
      ],
      [
        "Ġn",
        "uÃ´i"
      ],
      [
        "Ġl",
        "Ã´i"
      ],
      [
        "Ġl",
        "iÃªng"
      ],
      [
        "Ġl",
        "Äĥn"
      ],
      [
        "Ġl",
        "iÃªu"
      ],
      [
        "Ġl",
        "Æ°c"
      ],
      [
        "Ġl",
        "Æ¡n"
      ],
      [
        "Ġh",
        "Ãª"
      ],
      [
        "Ġh",
        "ang"
      ],
      [
        "Ġh",
        "ay"
      ],
      [
        "Ġh",
        "Æ¡n"
      ],
      [
        "ĠÄĳ",
        "o"
      ],
      [
        "ĠÄĳ",
        "iÃªu"
      ],
      [
        "ĠÄĳ",
        "inh"
      ],
      [
        "Ġb",
        "Æ¡"
      ],
      [
        "Ġtr",
        "i"
      ],
      [
        "Ġtr",
        "ai"
      ],
      [
        "Ġtr",
        "Äĥm"
      ],
      [
        "Ġnh",
        "Æ°ng"
      ],
      [
        "Ġch",
        "ay"
      ],
      [
        "Ġch",
        "ao"
      ],
      [
        "Ġch",
        "Æ°c"
      ],
      [
        "Ġph",
        "ai"
      ],
      [
        "Ġph",
        "Æ°Æ¡ng"
      ],
      [
        "ĠhÃ´",
        "n"
      ],
      [
        "Gia",
        "o"
      ],
      [
        "Ġs",
        "Ã´"
      ],
      [
        "Ġs",
        "Ã´ng"
      ],
      [
        "Ġs",
        "ang"
      ],
      [
        "Ġs",
        "au"
      ],
      [
        "Ġd",
        "Æ°"
      ],
      [
        "Ġd",
        "Æ°Æ¡ng"
      ],
      [
        "Ġd",
        "ung"
      ],
      [
        "Ġg",
        "Äĥng"
      ],
      [
        "Ġg",
        "Äĥp"
      ],
      [
        "Ġca",
        "m"
      ],
      [
        "Ġgi",
        "an"
      ],
      [
        "Ġx",
        "a"
      ],
      [
        "ĠÄĳÃª",
        "m"
      ],
      [
        "Ġkh",
        "o"
      ],
      [
        "Ġkh",
        "at"
      ],
      [
        "Ġqu",
        "Ãª"
      ],
      [
        "ĠtÃ´",
        "c"
      ],
      [
        "ĠCh",
        "i"
      ],
      [
        "ĠX",
        "in"
      ],
      [
        "ĠH",
        "Ã´"
      ],
      [
        "ĠH",
        "Ã´ng"
      ],
      [
        "Th",
        "anh"
      ],
      [
        "Ġy",
        "Ãªu"
      ],
      [
        "Ġlo",
        "ai"
      ],
      [
        "Ch",
        "ao"
      ],
      [
        "Kh",
        "oa"
      ],
      [
        "Ph",
        "Æ¡"
      ],
      [
        "Ġme",
        "o"
      ],
      [
        "Ġno",
        "i"
      ],
      [
        "1",
        "14"
      ],
      [
        "1",
        "19"
      ],
      [
        "1",
        "24"
      ],
      [
        "1",
        "29"
      ],
      [
        "1",
        "34"
      ],
      [
        "1",
        "39"
      ],
      [
        "1",
        "54"
      ],
      [
        "1",
        "59"
      ],
      [
        "1",
        "64"
      ],
      [
        "1",
        "69"
      ],
      [
        "1",
        "74"
      ],
      [
        "1",
        "79"
      ],
      [
        "1",
        "84"
      ],
      [
        "1",
        "89"
      ],
      [
        "1",
        "04"
      ],
      [
        "1",
        "09"
      ],
      [
        "2",
        "14"
      ],
      [
        "2",
        "19"
      ],
      [
        "2",
        "24"
      ],
      [
        "2",
        "29"
      ],
      [
        "2",
        "34"
      ],
      [
        "2",
        "39"
      ],
      [
        "2",
        "54"
      ],
      [
        "2",
        "59"
      ],
      [
        "2",
        "64"
      ],
      [
        "2",
        "69"
      ],
      [
        "2",
        "74"
      ],
      [
        "2",
        "79"
      ],
      [
        "2",
        "84"
      ],
      [
        "2",
        "89"
      ],
      [
        "2",
        "04"
      ],
      [
        "2",
        "09"
      ],
      [
        "3",
        "14"
      ],
      [
        "3",
        "19"
      ],
      [
        "3",
        "24"
      ],
      [
        "3",
        "29"
      ],
      [
        "3",
        "34"
      ],
      [
        "3",
        "39"
      ],
      [
        "3",
        "54"
      ],
      [
        "3",
        "59"
      ],
      [
        "3",
        "64"
      ],
      [
        "3",
        "69"
      ],
      [
        "3",
        "74"
      ],
      [
        "3",
        "79"
      ],
      [
        "3",
        "84"
      ],
      [
        "3",
        "89"
      ],
      [
        "3",
        "04"
      ],
      [
        "3",
        "09"
      ],
      [
        "4",
        "14"
      ],
      [
        "4",
        "19"
      ],
      [
        "4",
        "24"
      ],
      [
        "4",
        "29"
      ],
      [
        "4",
        "34"
      ],
      [
        "4",
        "39"
      ],
      [
        "4",
        "54"
      ],
      [
        "4",
        "59"
      ],
      [
        "4",
        "64"
      ],
      [
        "4",
        "69"
      ],
      [
        "4",
        "74"
      ],
      [
        "4",
        "79"
      ],
      [
        "4",
        "84"
      ],
      [
        "4",
        "89"
      ],
      [
        "4",
        "04"
      ],
      [
        "4",
        "09"
      ],
      [
        "5",
        "14"
      ],
      [
        "5",
        "19"
      ],
      [
        "5",
        "24"
      ],
      [
        "5",
        "29"
      ],
      [
        "5",
        "34"
      ],
      [
        "5",
        "39"
      ],
      [
        "5",
        "54"
      ],
      [
        "5",
        "59"
      ],
      [
        "5",
        "64"
      ],
      [
        "5",
        "69"
      ],
      [
        "5",
        "74"
      ],
      [
        "5",
        "79"
      ],
      [
        "5",
        "84"
      ],
      [
        "5",
        "89"
      ],
      [
        "5",
        "04"
      ],
      [
        "5",
        "09"
      ],
      [
        "6",
        "14"
      ],
      [
        "6",
        "19"
      ],
      [
        "6",
        "24"
      ],
      [
        "6",
        "29"
      ],
      [
        "6",
        "34"
      ],
      [
        "6",
        "39"
      ],
      [
        "6",
        "54"
      ],
      [
        "6",
        "59"
      ],
      [
        "6",
        "64"
      ],
      [
        "6",
        "69"
      ],
      [
        "6",
        "74"
      ],
      [
        "6",
        "79"
      ],
      [
        "6",
        "84"
      ],
      [
        "6",
        "89"
      ],
      [
        "6",
        "04"
      ],
      [
        "6",
        "09"
      ],
      [
        "9",
        "4"
      ],
      [
        "9",
        "9"
      ],
      [
        "A",
        "o"
      ],
      [
        "A",
        "nh"
      ],
      [
        "B",
        "iÃªn"
      ],
      [
        "B",
        "anh"
      ],
      [
        "C",
        "a"
      ],
      [
        "C",
        "Ã´ng"
      ],
      [
        "C",
        "am"
      ],
      [
        "C",
        "Ã¢u"
      ],
      [
        "D",
        "ong"
      ],
      [
        "L",
        "ong"
      ],
      [
        "M",
        "ua"
      ],
      [
        "N",
        "Æ°Æ¡c"
      ],
      [
        "N",
        "ui"
      ],
      [
        "N",
        "hÆ°ng"
      ],
      [
        "T",
        "r"
      ],
      [
        "T",
        "am"
      ],
      [
        "V",
        "Äĥn"
      ],
      [
        "e",
        "m"
      ],
      [
        "e",
        "o"
      ],
      [
        "e",
        "t"
      ],
      [
        "i",
        "ng"
      ],
      [
        "i",
        "nt"
      ],
      [
        "n",
        "et"
      ],
      [
        "o",
        "g"
      ],
      [
        "o",
        "ai"
      ],
      [
        "u",
        "Ã´n"
      ],
      [
        "Ä",
        "Ĳ"
      ],
      [
        "Ġ",
        "Ãª"
      ],
      [
        "Ġ",
        "so"
      ],
      [
        "Ġ",
        "su"
      ],
      [
        "Ġ",
        "Anh"
      ],
      [
        "Ġ",
        "em"
      ],
      [
        "Ġ",
        "int"
      ],
      [
        "Ġ",
        "uÃ´n"
      ],
      [
        "Ġ",
        "ÄĲ"
      ],
      [
        "Ġt",
        "Æ¡i"
      ],
      [
        "Ġt",
        "ai"
      ],
      [
        "Ġt",
        "uc"
      ],
      [
        "Ġt",
        "Äĥng"
      ],
      [
        "Ġt",
        "iÃªn"
      ],
      [
        "Ġt",
        "Ã´n"
      ],
      [
        "Ġt",
        "ach"
      ],
      [
        "Ġt",
        "Æ°Æ¡i"
      ],
      [
        "Ġt",
        "ich"
      ],
      [
        "Ã¢",
        "c"
      ],
      [
        "Ã¢",
        "p"
      ],
      [
        "er",
        "net"
      ],
      [
        "Ġth",
        "Ã¢n"
      ],
      [
        "Ġth",
        "Æ¡i"
      ],
      [
        "Ġth",
        "Æ°a"
      ],
      [
        "Ġth",
        "Æ°Æ¡ng"
      ],
      [
        "Ġth",
        "Äĥm"
      ],
      [
        "Ġth",
        "ich"
      ],
      [
        "Ġth",
        "eo"
      ],
      [
        "Ġth",
        "oai"
      ],
      [
        "in",
        "ing"
      ],
      [
        "Ġc",
        "at"
      ],
      [
        "Ġc",
        "Æ¡"
      ],
      [
        "Ġc",
        "Ã¢p"
      ],
      [
        "Ġv",
        "u"
      ],
      [
        "Ġv",
        "Ã¢n"
      ],
      [
        "Ġv",
        "inh"
      ],
      [
        "Ġv",
        "Æ°ng"
      ],
      [
        "Ġv",
        "ung"
      ],
      [
        "Ġqua",
        "ng"
      ],
      [
        "Ġm",
        "a"
      ],
      [
        "Ġm",
        "i"
      ],
      [
        "Ġm",
        "ua"
      ],
      [
        "Ġm",
        "Æ¡"
      ],
      [
        "Ġm",
        "iÃªng"
      ],
      [
        "Ġm",
        "iÃªn"
      ],
      [
        "Ġm",
        "Ã¢m"
      ],
      [
        "ĠN",
        "hÆ°ng"
      ],
      [
        "Ġn",
        "Ã´ng"
      ],
      [
        "Ġn",
        "on"
      ],
      [
        "Ġn",
        "Æ°"
      ],
      [
        "Ġn",
        "Æ¡i"
      ],
      [
        "Ġn",
        "Ãªn"
      ],
      [
        "Ġng",
        "u"
      ],
      [
        "Ġng",
        "an"
      ],
      [
        "Ġng",
        "on"
      ],
      [
        "Ġng",
        "uyÃªn"
      ],
      [
        "Ġl",
        "ua"
      ],
      [
        "Ġl",
        "Æ°Æ¡"
      ],
      [
        "Ġl",
        "Æ°Æ¡c"
      ],
      [
        "Ġl",
        "Äĥm"
      ],
      [
        "Ġl",
        "uyÃªn"
      ],
      [
        "Ġl",
        "anh"
      ],
      [
        "Ġh",
        "ai"
      ],
      [
        "Ġh",
        "oi"
      ],
      [
        "Ġh",
        "iÃªu"
      ],
      [
        "Ġh",
        "ung"
      ],
      [
        "Ġh",
        "uÃ¢n"
      ],
      [
        "Ġh",
        "Æ°u"
      ],
      [
        "Ġgia",
        "o"
      ],
      [
        "ĠÄĳ",
        "on"
      ],
      [
        "ĠÄĳ",
        "Æ¡i"
      ],
      [
        "ĠÄĳ",
        "Ã¢t"
      ],
      [
        "ĠÄĳ",
        "Äĥc"
      ],
      [
        "ĠÄĳ",
        "Ã¢u"
      ],
      [
        "ĠÄĳ",
        "Äĥp"
      ],
      [
        "Ġb",
        "e"
      ],
      [
        "Ġb",
        "o"
      ],
      [
        "Ġb",
        "Ã´"
      ],
      [
        "Ġb",
        "Ã´i"
      ],
      [
        "Ġb",
        "ao"
      ],
      [
        "Ġb",
        "Ã¢c"
      ],
      [
        "Ġtr",
        "e"
      ],
      [
        "Ġtr",
        "u"
      ],
      [
        "Ġtr",
        "ang"
      ],
      [
        "Ġtr",
        "Æ¡"
      ],
      [
        "Ġtr",
        "Æ°Æ¡ng"
      ],
      [
        "Ġtr",
        "uy"
      ],
      [
        "Ġtr",
        "Æ°ng"
      ],
      [
        "Ġtr",
        "ach"
      ],
      [
        "Ġnh",
        "o"
      ],
      [
        "Ġnh",
        "Æ°"
      ],
      [
        "Ġnh",
        "iÃªm"
      ],
      [
        "Ġnh",
        "iÃªn"
      ],
      [
        "Ġnh",
        "au"
      ],
      [
        "Ġch",
        "u"
      ],
      [
        "Ġch",
        "in"
      ],
      [
        "Ġch",
        "Ã¢n"
      ],
      [
        "Ġch",
        "Ã¢t"
      ],
      [
        "Ġch",
        "iÃªn"
      ],
      [
        "Ġch",
        "ung"
      ],
      [
        "Ġph",
        "Ãª"
      ],
      [
        "Ġph",
        "ia"
      ],
      [
        "Ġph",
        "Ã¢n"
      ],
      [
        "Ġph",
        "uc"
      ],
      [
        "Ġph",
        "ong"
      ],
      [
        "Ġph",
        "Ã¢m"
      ],
      [
        "Ġna",
        "n"
      ],
      [
        "Ġs",
        "a"
      ],
      [
        "Ġs",
        "Ã´i"
      ],
      [
        "Ġs",
        "Æ°a"
      ],
      [
        "Ġd",
        "ang"
      ],
      [
        "Ġd",
        "ao"
      ],
      [
        "Ġd",
        "oc"
      ],
      [
        "Ġd",
        "uy"
      ],
      [
        "Ġd",
        "og"
      ],
      [
        "Ġg",
        "Äĥn"
      ],
      [
        "Ġngh",
        "i"
      ],
      [
        "Ġgi",
        "Æ°a"
      ],
      [
        "ĠC",
        "Æ°u"
      ],
      [
        "14",
        "4"
      ],
      [
        "14",
        "9"
      ],
      [
        "19",
        "4"
      ],
      [
        "19",
        "9"
      ],
      [
        "24",
        "4"
      ],
      [
        "24",
        "9"
      ],
      [
        "29",
        "4"
      ],
      [
        "29",
        "9"
      ],
      [
        "34",
        "4"
      ],
      [
        "34",
        "9"
      ],
      [
        "39",
        "4"
      ],
      [
        "39",
        "9"
      ],
      [
        "54",
        "4"
      ],
      [
        "54",
        "9"
      ],
      [
        "59",
        "4"
      ],
      [
        "59",
        "9"
      ],
      [
        "64",
        "4"
      ],
      [
        "64",
        "9"
      ],
      [
        "69",
        "4"
      ],
      [
        "69",
        "9"
      ],
      [
        "Ġx",
        "uc"
      ],
      [
        "Ġx",
        "Æ°a"
      ],
      [
        "Ġx",
        "uÃ´ng"
      ],
      [
        "Ġx",
        "uÃ¢n"
      ],
      [
        "ĠÆ¡",
        "n"
      ],
      [
        "Ġqu",
        "Ã¢y"
      ],
      [
        "Ġqu",
        "Ã¢n"
      ],
      [
        "ĠsÆ°",
        "Æ¡i"
      ],
      [
        "Ġr",
        "Æ¡i"
      ],
      [
        "Ġr",
        "Æ°ng"
      ],
      [
        "Ġr",
        "uÃ´ng"
      ],
      [
        "ĠCh",
        "uc"
      ],
      [
        "ĠB",
        "iÃªn"
      ],
      [
        "ĠB",
        "Äĥc"
      ],
      [
        "ĠL",
        "ong"
      ],
      [
        "44",
        "4"
      ],
      [
        "44",
        "9"
      ],
      [
        "Ġtra",
        "ining"
      ],
      [
        "49",
        "4"
      ],
      [
        "49",
        "9"
      ],
      [
        "Th",
        "iÃªn"
      ],
      [
        "ĠT",
        "Ã´"
      ],
      [
        "ĠT",
        "Ã¢y"
      ],
      [
        "ĠT",
        "Ãªt"
      ],
      [
        "Ġy",
        "Ãªn"
      ],
      [
        "Ng",
        "Ã´n"
      ],
      [
        "Ng",
        "Æ°Æ¡i"
      ],
      [
        "Tr",
        "e"
      ],
      [
        "ĠÃª",
        "m"
      ],
      [
        "Ġso",
        "c"
      ],
      [
        "Ġsu",
        "Ã¢t"
      ],
      [
        "Ġint",
        "ernet"
      ],
      [
        "ĠÄĲ",
        "Ã´ng"
      ],
      [
        "ĠlÆ°Æ¡",
        "n"
      ]
    ]
  }
}