{
  "version": "1.0",
  "truncation": null,
  "padding": null,
  "added_tokens": [
    {
      "id": 0,
      "content": "<pad>",
      "single_word": false,
      "lstrip": false,
      "rstrip": false,
      "normalized": false,
      "special": true
    },
    {
      "id": 1,
      "content": "<unk>",
      "single_word": false,
      "lstrip": false,
      "rstrip": false,
      "normalized": false,
      "special": true
    },
    {
      "id": 2,
      "content": "<bos>",
      "single_word": false,
      "lstrip": false,
      "rstrip": false,
      "normalized": false,
      "special": true
    },
    {
      "id": 3,
      "content": "<eos>",
      "single_word": false,
      "lstrip": false,
      "rstrip": false,
      "normalized": false,
      "special": true
    }
  ],
  "normalizer": null,
  "pre_tokenizer": {
    "type": "ByteLevel",
    "add_prefix_space": false,
    "trim_offsets": true,
    "use_regex": true
  },
  "post_processor": null,
  "decoder": {
    "type": "ByteLevel",
    "add_prefix_space": true,
    "trim_offsets": true,
    "use_regex": true
  },
  "model": {
    "type": "BPE",
    "dropout": null,
    "unk_token": "<unk>",
    "continuing_subword_prefix": null,
    "end_of_word_suffix": null,
    "fuse_unk": false,
    "byte_fallback": false,
    "ignore_merges": false,
    "vocab": {
      "<pad>": 0,
      "<unk>": 1,
      "<bos>": 2,
      "<eos>": 3,
      "!": 4,
      "\"": 5,
      "#": 6,
      "$": 7,
      "%": 8,
      "&": 9,
      "'": 10,
      "(": 11,
      ")": 12,
      "*": 13,
      "+": 14,
      ",": 15,
      "-": 16,
      ".": 17,
      "/": 18,
      "0": 19,
      "1": 20,
      "2": 21,
      "3": 22,
      "4": 23,
      "5": 24,
      "6": 25,
      "7": 26,
      "8": 27,
      "9": 28,
      ":": 29,
      ";": 30,
      "<": 31,
      "=": 32,
      ">": 33,
      "?": 34,
      "@": 35,
      "A": 36,
      "B": 37,
      "C": 38,
      "D": 39,
      "E": 40,
      "F": 41,
      "G": 42,
      "H": 43,
      "I": 44,
      "J": 45,
      "K": 46,
      "L": 47,
      "M": 48,
      "N": 49,
      "O": 50,
      "P": 51,
      "Q": 52,
      "R": 53,
      "S": 54,
      "T": 55,
      "U": 56,
      "V": 57,
      "W": 58,
      "X": 59,
      "Y": 60,
      "Z": 61,
      "[": 62,
      "\\": 63,
      "]": 64,
      "^": 65,
      "_": 66,
      "`": 67,
      "a": 68,
      "b": 69,
      "c": 70,
      "d": 71,
      "e": 72,
      "f": 73,
      "g": 74,
      "h": 75,
      "i": 76,
      "j": 77,
      "k": 78,
      "l": 79,
      "m": 80,
      "n": 81,
      "o": 82,
      "p": 83,
      "q": 84,
      "r": 85,
      "s": 86,
      "t": 87,
      "u": 88,
      "v": 89,
      "w": 90,
      "x": 91,
      "y": 92,
      "z": 93,
      "{": 94,
      "|": 95,
      "}": 96,
      "~": 97,
      "¡": 98,
      "¢": 99,
      "£": 100,
      "¤": 101,
      "¥": 102,
      "¦": 103,
      "§": 104,
      "¨": 105,
      "©": 106,
      "ª": 107,
      "«": 108,
      "¬": 109,
      "®": 110,
      "¯": 111,
      "°": 112,
      "±": 113,
      "²": 114,
      "³": 115,
      "´": 116,
      "µ": 117,
      "¶": 118,
      "·": 119,
      "¸": 120,
      "¹": 121,
      "º": 122,
      "»": 123,
      "¼": 124,
      "½": 125,
      "¾": 126,
      "¿": 127,
      "À": 128,
      "Á": 129,
      "Â": 130,
      "Ã": 131,
      "Ä": 132,
      "Å": 133,
      "Æ": 134,
      "Ç": 135,
      "È": 136,
      "É": 137,
      "Ê": 138,
      "Ë": 139,
      "Ì": 140,
      "Í": 141,
      "Î": 142,
      "Ï": 143,
      "Ð": 144,
      "Ñ": 145,
      "Ò": 146,
      "Ó": 147,
      "Ô": 148,
      "Õ": 149,
      "Ö": 150,
      "×": 151,
      "Ø": 152,
      "Ù": 153,
      "Ú": 154,
      "Û": 155,
      "Ü": 156,
      "Ý": 157,
      "Þ": 158,
      "ß": 159,
      "à": 160,
      "á": 161,
      "â": 162,
      "ã": 163,
      "ä": 164,
      "å": 165,
      "æ": 166,
      "ç": 167,
      "è": 168,
      "é": 169,
      "ê": 170,
      "ë": 171,
      "ì": 172,
      "í": 173,
      "î": 174,
      "ï": 175,
      "ð": 176,
      "ñ": 177,
      "ò": 178,
      "ó": 179,
      "ô": 180,
      "õ": 181,
      "ö": 182,
      "÷": 183,
      "ø": 184,
      "ù": 185,
      "ú": 186,
      "û": 187,
      "ü": 188,
      "ý": 189,
      "þ": 190,
      "ÿ": 191,
      "Ā": 192,
      "ā": 193,
      "Ă": 194,
      "ă": 195,
      "Ą": 196,
      "ą": 197,
      "Ć": 198,
      "ć": 199,
      "Ĉ": 200,
      "ĉ": 201,
      "Ċ": 202,
      "ċ": 203,
      "Č": 204,
      "č": 205,
      "Ď": 206,
      "ď": 207,
      "Đ": 208,
      "đ": 209,
      "Ē": 210,
      "ē": 211,
      "Ĕ": 212,
      "ĕ": 213,
      "Ė": 214,
      "ė": 215,
      "Ę": 216,
      "ę": 217,
      "Ě": 218,
      "ě": 219,
      "Ĝ": 220,
      "ĝ": 221,
      "Ğ": 222,
      "ğ": 223,
      "Ġ": 224,
      "ġ": 225,
      "Ģ": 226,
      "ģ": 227,
      "Ĥ": 228,
      "ĥ": 229,
      "Ħ": 230,
      "ħ": 231,
      "Ĩ": 232,
      "ĩ": 233,
      "Ī": 234,
      "ī": 235,
      "Ĭ": 236,
      "ĭ": 237,
      "Į": 238,
      "į": 239,
      "İ": 240,
      "ı": 241,
      "Ĳ": 242,
      "ĳ": 243,
      "Ĵ": 244,
      "ĵ": 245,
      "Ķ": 246,
      "ķ": 247,
      "ĸ": 248,
      "Ĺ": 249,
      "ĺ": 250,
      "Ļ": 251,
      "ļ": 252,
      "Ľ": 253,
      "ľ": 254,
      "Ŀ": 255,
      "ŀ": 256,
      "Ł": 257,
      "ł": 258,
      "Ń": 259,
      "Ġ\"": 260,
      "Ġt": 261,
      "ng": 262,
      "\":": 263,
      "nh": 264,
      "Ãª": 265,
      "Æ¡": 266,
      "Ġc": 267,
      "Ã´": 268,
      "ro": 269,
      "Æ°": 270,
      "Ġl": 271,
      "an": 272,
      "ĠÄ": 273,
      "se": 274,
      "on": 275,
      "re": 276,
      "ĠÄĳ": 277,
      "\",": 278,
      "\"}": 279,
      "mp": 280,
      "pro": 281,
      "pon": 282,
      "spon": 283,
      "{\"": 284,
      "čĊ": 285,
      "respon": 286,
      "mpt": 287,
      "prompt": 288,
      "response": 289,
      ".\"}": 290,
      "Ġm": 291,
      "Ã¢": 292,
      "Ġb": 293,
      "iÃª": 294,
      "inh": 295,
      "Ġg": 296,
      "Ġla": 297,
      "ra": 298,
      "ao": 299,
      "Ġh": 300,
      "Ġnh": 301,
      "Ġk": 302,
      "Ġgi": 303,
      "Ġth": 304,
      "Ġd": 305,
      "Ġn": 306,
      "?\",": 307,
      "ay": 308,
      "Ã´ng": 309,
      "Ġkh": 310,
      "Ġv": 311,
      "Ġx": 312,
      "Æ¡i": 313,
      "ai": 314,
      "Ġng": 315,
      "Ġch": 316,
      "in": 317,
      "Ġ1": 318,
      "ig": 319,
      "anh": 320,
      "ĠB": 321,
      "Nan": 322,
      "ĠNan": 323,
      "ram": 324,
      "igram": 325,
      "ĠNano": 326,
      "ph": 327,
      "Ġph": 328,
      "ĠA": 329,
      "nt": 330,
      "La": 331,
      "ev": 332,
      "ynt": 333,
      "ĠLa": 334,
      "ĠBigram": 335,
      "evynt": 336,
      "ĠLab": 337,
      "Ãªn": 338,
      "Ġs": 339,
      "ĠAevynt": 340,
      "ua": 341,
      "Ã´i": 342,
      "hi": 343,
      "Ã¢n": 344,
      "Ġtr": 345,
      "Ġcua": 346,
      "Äĥ": 347,
      "Æ°Æ¡": 348,
      "iÃªu": 349,
      "Ġminh": 350,
      "ĠkhÃ´ng": 351,
      "ang": 352,
      "Ġtro": 353,
      "Minh": 354,
      "Ġban": 355,
      "em": 356,
      "ĠÄĳÃª": 357,
      "uy": 358,
      "Ġtrong": 359,
      "Æ°ng": 360,
      "Ġco": 361,
      "Ch": 362,
      "May": 363,
      "am": 364,
      "Ġtao": 365,
      "Æ¡n": 366,
      "Ã¢y": 367,
      "Ġnghi": 368,
      "Æ°Æ¡c": 369,
      "iÃªt": 370,
      "ep": 371,
      "Ġq": 372,
      "Æ°c": 373,
      "Ġphep": 374,
      "ĠhÃ´": 375,
      "ĠthÆ¡i": 376,
      "Æ°a": 377,
      "ac": 378,
      "Em": 379,
      "Ġgian": 380,
      "Ġxin": 381,
      "Ġxanh": 382,
      "Ãªt": 383,
      "Ã´t": 384,
      "ĠÄĳÆ°Æ¡c": 385,
      "Ġgia": 386,
      "Ġkhi": 387,
      "Ġra": 388,
      "Ġem": 389,
      "ĠtÆ°": 390,
      "oan": 391,
      "ĠÄĳÃ¢y": 392,
      "iÃªn": 393,
      "ĠdÆ°": 394,
      "ĠnÃªn": 395,
      "Chao": 396,
      "au": 397,
      "Ġdo": 398,
      "Ġva": 399,
      "Ã¢u": 400,
      "ĠnhÆ°ng": 401,
      "Ġxem": 402,
      "uyÃªn": 403,
      "ung": 404,
      "Ġanh": 405,
      "ĠmÃ´t": 406,
      "he": 407,
      "Ġlai": 408,
      "ĠthÆ°c": 409,
      "Äĥp": 410,
      "ong": 411,
      "ĠÆ¡": 412,
      "Ġtra": 413,
      "ĠÄĳÃ´ng": 414,
      "Ġnay": 415,
      "ĠchÆ°a": 416,
      "ĥn": 417,
      "ĠÄĥn": 418,
      "ail": 419,
      "Æ°Æ¡ng": 420,
      "Ġemail": 421,
      "Xin": 422,
      "el": 423,
      "ĠhÆ¡n": 424,
      "Ġnho": 425,
      "Ġnghe": 426,
      "ĠĠ": 427,
      "Ġbao": 428,
      "ĠtrÆ¡i": 429,
      "chi": 430,
      "ui": 431,
      "Ġr": 432,
      "ĠliÃªu": 433,
      "Ã¢p": 434,
      "ĠnhiÃªu": 435,
      "ĠphÃ¢n": 436,
      "ach": 437,
      "Ã¢t": 438,
      "Ġne": 439,
      "at": 440,
      "en": 441,
      "ĠnhÃ¢n": 442,
      "Gi": 443,
      "del": 444,
      "odel": 445,
      "uÃ´i": 446,
      "ĠmÆ¡i": 447,
      "Ġmodel": 448,
      "Ġnha": 449,
      "ĠdÆ°ng": 450,
      "TÃªn": 451,
      "ĠÆ¡n": 452,
      "Ãªu": 453,
      "Ġbai": 454,
      "ĠnhÃ¢t": 455,
      "Ġngay": 456,
      "Äĥc": 457,
      "ĠrÃ´i": 458,
      "Ban": 459,
      "TiÃªu": 460,
      "ad": 461,
      "ead": 462,
      "lin": 463,
      "nEm": 464,
      "Ġ[": 465,
      "Ġse": 466,
      "ĠEm": 467,
      "ĠXin": 468,
      "Ġtan": 469,
      "ngay": 470,
      "ĠÄĳang": 471,
      "Ġmau": 472,
      "ĠbiÃªt": 473,
      "ĠbÃ¢u": 474,
      "Ġho": 475,
      "Ġdead": 476,
      "ĠchuyÃªn": 477,
      "Ġsang": 478,
      "Ġquy": 479,
      "line": 480,
      "Ġdeadline": 481,
      "up": 482,
      "ĠlÄĥp": 483,
      "Ġnhe": 484,
      "Ġgiup": 485,
      "ĠsÃ´": 486,
      "oi": 487,
      "Ġ=": 488,
      "ĠtÆ°Æ¡ng": 489,
      "Æ¡m": 490,
      "ĠcÆ¡m": 491,
      "Ġthi": 492,
      "Ġdu": 493,
      "Äĥng": 494,
      "Mong": 495,
      "ÄĲ": 496,
      "Ġf": 497,
      "Ġai": 498,
      "ĠMong": 499,
      "ĠtiÃª": 500,
      "Ġtin": 501,
      "Ġvi": 502,
      "Ġsach": 503,
      "ĠtrÆ¡": 504,
      "ĠtiÃªp": 505,
      "Vi": 506,
      "Ġtai": 507,
      "ĠtiÃªt": 508,
      "Æ°i": 509,
      "ĠÄĳu": 510,
      "ĠbuÃ´i": 511,
      "ĠgÆ°i": 512,
      "Ġhanh": 513,
      "ĠhiÃªn": 514,
      "ĠvÃª": 515,
      "Soan": 516,
      "ViÃªt": 517,
      "lo": 518,
      "or": 519,
      "Ġtoan": 520,
      "ĠcÃ¢n": 521,
      "Ã´n": 522,
      "Ġly": 523,
      "iÃªm": 524,
      "ĠkiÃªm": 525,
      "Ġgiai": 526,
      "Ġduy": 527,
      "ĠphiÃªn": 528,
      "Ġsau": 529,
      "ĠhoÄĥc": 530,
      "Ġfor": 531,
      "ĠduyÃªt": 532,
      "Ham": 533,
      "Tam": 534,
      "le": 535,
      "yÃªu": 536,
      "ĠyÃªu": 537,
      "Ãªnh": 538,
      "ĠcÃ´ng": 539,
      "ĠcÃ¢p": 540,
      "Ġlui": 541,
      "ĠlÃªnh": 542,
      "ĠÄĳÃ¢u": 543,
      "ĠÄĳung": 544,
      "Ġmai": 545,
      "Ġbi": 546,
      "iÃªc": 547,
      "Ġhan": 548,
      "ĠthÃª": 549,
      "Ġnao": 550,
      "ĠkhÃ´i": 551,
      "Ġvang": 552,
      "ĠviÃªc": 553,
      "Ġxa": 554,
      "Ġchi": 555,
      "Ġsao": 556,
      "ĠtrÆ°Æ¡c": 557,
      "ĠquyÃªn": 558,
      "ĠhÃ´m": 559,
      "Cam": 560,
      "Kh": 561,
      "Ġ0": 562,
      "ĠlÃ¢p": 563,
      "ĠthÃ´i": 564,
      "Ġnoi": 565,
      "Ġvao": 566,
      "Ġvui": 567,
      "Ġchinh": 568,
      "Ġtrinh": 569,
      "KhÃ´ng": 570,
      "Ng": 571,
      "Ġtinh": 572,
      "Ġcac": 573,
      "ĠmÃªt": 574,
      "ĠphÆ¡": 575,
      "ÄĲÃª": 576,
      "TÃ´i": 577,
      "Ġ(": 578,
      "Ġthanh": 579,
      "!,": 580,
      ")!,": 581,
      ",\\": 582,
      "Co": 583,
      "GP": 584,
      "Kinh": 585,
      "hon": 586,
      "ken": 587,
      "nCam": 588,
      "oken": 589,
      "thon": 590,
      "uc": 591,
      "ython": 592,
      "Ġ*": 593,
      "ĠY": 594,
      "Ġa": 595,
      "ĠCh": 596,
      "ĠtÃª": 597,
      "ĠtÆ¡i": 598,
      "ĠtÃ´i": 599,
      "Ġtoken": 600,
      "Ġtuc": 601,
      "Ġcao": 602,
      "Ġcam": 603,
      "ĠlÆ¡i": 604,
      "ĠlÆ°Æ¡ng": 605,
      "ĠÄĳa": 606,
      "ĠÄĳo": 607,
      "ĠÄĳÆ¡n": 608,
      "ĠmÃ¢y": 609,
      "ĠbÄĥng": 610,
      "ĠhÃª": 611,
      "Ġhang": 612,
      "ĠgiÆ¡": 613,
      "ĠthÃ´ng": 614,
      "ĠthÆ°a": 615,
      "Ġdanh": 616,
      "ĠnÄĥng": 617,
      "Ġkhach": 618,
      "ĠvÃ¢n": 619,
      "ĠsÆ°": 620,
      "Cho": 621,
      "ĠĠĠ": 622,
      "atGP": 623,
      "GiÆ¡": 624,
      "Ġchia": 625,
      "ĠChatGP": 626,
      "ĠChatGPT": 627,
      "!\",": 628,
      "Hi": 629,
      "Hen": 630,
      "Python": 631,
      "SD": 632,
      "Th": 633,
      "Ty": 634,
      "Tin": 635,
      "USD": 636,
      "eo": 637,
      "it": 638,
      "uÃ´n": 639,
      "Æ¯": 640,
      "ĠR": 641,
      "ĠHen": 642,
      "ĠPython": 643,
      "ĠUSD": 644,
      "Ġty": 645,
      "ĠtÆ°c": 646,
      "Ġca": 647,
      "ĠlÃ¢n": 648,
      "Ġbang": 649,
      "Ġgiao": 650,
      "Ġtheo": 651,
      "ĠnÃªu": 652,
      "ĠnguÃ´n": 653,
      "Ġchao": 654,
      "ĠBan": 655,
      "ĠtrÆ°c": 656,
      "Ġqua": 657,
      "Nghi": 658,
      "ThÆ¡i": 659,
      "\"\\": 660,
      "Anh": 661,
      "Alo": 662,
      "By": 663,
      "Do": 664,
      "Sang": 665,
      "Tai": 666,
      "Vong": 667,
      "ble": 668,
      "ch": 669,
      "era": 670,
      "rd": 671,
      "Ġre": 672,
      "ĠÃ´n": 673,
      "Ġit": 674,
      "Ġta": 675,
      "ĠtÃªn": 676,
      "ĠtÆ°ng": 677,
      "ĠtÃ´t": 678,
      "Ġcung": 679,
      "Æ°Æ¡i": 680,
      "ĠÄĳinh": 681,
      "ĠÄĳÃªn": 682,
      "ĠmÆ¡": 683,
      "Ġmanh": 684,
      "ĠmÄĥ": 685,
      "ĠgÄĥp": 686,
      "Ġlanh": 687,
      "Ġham": 688,
      "Ġhoan": 689,
      "Ġhen": 690,
      "Ġnhin": 691,
      "ĠkÃªt": 692,
      "ĠthÃ¢y": 693,
      "Ġdung": 694,
      "ayle": 695,
      "Ġkhac": 696,
      "ĠvÃ¢y": 697,
      "Ġvong": 698,
      "ĠxÆ°": 699,
      "ĠngÆ°Æ¡i": 700,
      "Ġcho": 701,
      "Ġchay": 702,
      "Ġchat": 703,
      "ĠchuÃ´i": 704,
      "ĠchÄĥc": 705,
      "igh": 706,
      "ĠphÃªt": 707,
      "ĠAI": 708,
      "ĠtrÃ´ng": 709,
      "Ġnerd": 710,
      "Gia": 711,
      "Giai": 712,
      "Ġthich": 713,
      "ĠRayle": 714,
      "Bye": 715,
      "erable": 716,
      "Ġiterable": 717,
      "ĠmÄĥt": 718,
      "ĠRayleigh": 719,
      "Ai": 720,
      "Aevynt": 721,
      "Bigram": 722,
      "Hel": 723,
      "].": 724,
      "um": 725,
      "uay": 726,
      "ĠTÃªn": 727,
      "Ãªp": 728,
      "ĠÄĳiÃªu": 729,
      "Ġmay": 730,
      "ĠbÃ¢n": 731,
      "Ġgon": 732,
      "Ġgoi": 733,
      "ĠhÆ¡i": 734,
      "ĠkiÃªn": 735,
      "Ġno": 736,
      "ĠxÃªp": 737,
      "ĠngÄĥ": 738,
      "Ġphai": 739,
      "ĠsÄĥp": 740,
      "ChÆ°a": 741,
      "Ġquay": 742,
      "Ġhoat": 743,
      "ÄĲung": 744,
      "Ġren": 745,
      "Hello": 746,
      "ĠngÄĥn": 747,
      ":\\": 748,
      "``": 749,
      "st": 750,
      "Ġtham": 751,
      "ĠchiÃªu": 752,
      "\"\\\"\\": 753,
      ".\\": 754,
      "be": 755,
      "ist": 756,
      "rs": 757,
      "ÃĬ": 758,
      "ĠT": 759,
      "ĠtÃ´ng": 760,
      "ĠrÃ¢t": 761,
      "Nghe": 762,
      "umbe": 763,
      "umbers": 764,
      ">=": 765,
      "\\\"\\\"\\": 766,
      "de": 767,
      "rn": 768,
      "tu": 769,
      "Ġ>=": 770,
      "Ġ\\\"\\\"\\": 771,
      "Ġlist": 772,
      "ĠdÆ°Æ¡ng": 773,
      "Ġnumbers": 774,
      "Ġsum": 775,
      "ĠĠĠĠ": 776,
      "Ġflo": 777,
      "```": 778,
      "turn": 779,
      "Ġ\\\"\\\"\\\"\\": 780,
      "ĠĠĠĠĠĠĠ": 781,
      "Ġfloat": 782,
      "):": 783,
      ")\\": 784,
      "->": 785,
      "Danh": 786,
      "cst": 787,
      "ent": 788,
      "eturn": 789,
      "gs": 790,
      "if": 791,
      "iv": 792,
      "ing": 793,
      "list": 794,
      "mm": 795,
      "numbers": 796,
      "nde": 797,
      "os": 798,
      "python": 799,
      "pos": 800,
      "rgs": 801,
      "ring": 802,
      "uÃ¢n": 803,
      "ĠÃ¢": 804,
      "Ġin": 805,
      "Ġ->": 806,
      "ĠDanh": 807,
      "Ġif": 808,
      "Ġ\"```": 809,
      "Ġbo": 810,
      "ĠviÃªt": 811,
      "ĠchuÃ¢n": 812,
      "ĠArgs": 813,
      "Ġtri": 814,
      "Ġcode": 815,
      "Ġcomm": 816,
      "Ġdocst": 817,
      "ĠrÃ´ng": 818,
      "itiv": 819,
      "ĠReturn": 820,
      "Ġreturn": 821,
      "ĠTinh": 822,
      "ĠTra": 823,
      "ĠTÃ´ng": 824,
      "```\"}": 825,
      "ndef": 826,
      "positiv": 827,
      "ĠÃ¢m": 828,
      "Ġcomment": 829,
      "Ġdocstring": 830,
      "ĠReturns": 831,
      "positive": 832
    },
    "merges": [
      [
        "Ġ",
        "\""
      ],
      [
        "Ġ",
        "t"
      ],
      [
        "n",
        "g"
      ],
      [
        "\"",
        ":"
      ],
      [
        "n",
        "h"
      ],
      [
        "Ã",
        "ª"
      ],
      [
        "Æ",
        "¡"
      ],
      [
        "Ġ",
        "c"
      ],
      [
        "Ã",
        "´"
      ],
      [
        "r",
        "o"
      ],
      [
        "Æ",
        "°"
      ],
      [
        "Ġ",
        "l"
      ],
      [
        "a",
        "n"
      ],
      [
        "Ġ",
        "Ä"
      ],
      [
        "s",
        "e"
      ],
      [
        "o",
        "n"
      ],
      [
        "r",
        "e"
      ],
      [
        "ĠÄ",
        "ĳ"
      ],
      [
        "\"",
        ","
      ],
      [
        "\"",
        "}"
      ],
      [
        "m",
        "p"
      ],
      [
        "p",
        "ro"
      ],
      [
        "p",
        "on"
      ],
      [
        "s",
        "pon"
      ],
      [
        "{",
        "\""
      ],
      [
        "č",
        "Ċ"
      ],
      [
        "re",
        "spon"
      ],
      [
        "mp",
        "t"
      ],
      [
        "pro",
        "mpt"
      ],
      [
        "respon",
        "se"
      ],
      [
        ".",
        "\"}"
      ],
      [
        "Ġ",
        "m"
      ],
      [
        "Ã",
        "¢"
      ],
      [
        "Ġ",
        "b"
      ],
      [
        "i",
        "Ãª"
      ],
      [
        "i",
        "nh"
      ],
      [
        "Ġ",
        "g"
      ],
      [
        "Ġl",
        "a"
      ],
      [
        "r",
        "a"
      ],
      [
        "a",
        "o"
      ],
      [
        "Ġ",
        "h"
      ],
      [
        "Ġ",
        "nh"
      ],
      [
        "Ġ",
        "k"
      ],
      [
        "Ġg",
        "i"
      ],
      [
        "Ġt",
        "h"
      ],
      [
        "Ġ",
        "d"
      ],
      [
        "Ġ",
        "n"
      ],
      [
        "?",
        "\","
      ],
      [
        "a",
        "y"
      ],
      [
        "Ã´",
        "ng"
      ],
      [
        "Ġk",
        "h"
      ],
      [
        "Ġ",
        "v"
      ],
      [
        "Ġ",
        "x"
      ],
      [
        "Æ¡",
        "i"
      ],
      [
        "a",
        "i"
      ],
      [
        "Ġ",
        "ng"
      ],
      [
        "Ġc",
        "h"
      ],
      [
        "i",
        "n"
      ],
      [
        "Ġ",
        "1"
      ],
      [
        "i",
        "g"
      ],
      [
        "a",
        "nh"
      ],
      [
        "Ġ",
        "B"
      ],
      [
        "N",
        "an"
      ],
      [
        "Ġ",
        "Nan"
      ],
      [
        "ra",
        "m"
      ],
      [
        "ig",
        "ram"
      ],
      [
        "ĠNan",
        "o"
      ],
      [
        "p",
        "h"
      ],
      [
        "Ġ",
        "ph"
      ],
      [
        "Ġ",
        "A"
      ],
      [
        "n",
        "t"
      ],
      [
        "L",
        "a"
      ],
      [
        "e",
        "v"
      ],
      [
        "y",
        "nt"
      ],
      [
        "Ġ",
        "La"
      ],
      [
        "ĠB",
        "igram"
      ],
      [
        "ev",
        "ynt"
      ],
      [
        "ĠLa",
        "b"
      ],
      [
        "Ãª",
        "n"
      ],
      [
        "Ġ",
        "s"
      ],
      [
        "ĠA",
        "evynt"
      ],
      [
        "u",
        "a"
      ],
      [
        "Ã´",
        "i"
      ],
      [
        "h",
        "i"
      ],
      [
        "Ã¢",
        "n"
      ],
      [
        "Ġt",
        "r"
      ],
      [
        "Ġc",
        "ua"
      ],
      [
        "Ä",
        "ĥ"
      ],
      [
        "Æ°",
        "Æ¡"
      ],
      [
        "iÃª",
        "u"
      ],
      [
        "Ġm",
        "inh"
      ],
      [
        "Ġkh",
        "Ã´ng"
      ],
      [
        "a",
        "ng"
      ],
      [
        "Ġt",
        "ro"
      ],
      [
        "M",
        "inh"
      ],
      [
        "Ġb",
        "an"
      ],
      [
        "e",
        "m"
      ],
      [
        "ĠÄĳ",
        "Ãª"
      ],
      [
        "u",
        "y"
      ],
      [
        "Ġtro",
        "ng"
      ],
      [
        "Æ°",
        "ng"
      ],
      [
        "Ġc",
        "o"
      ],
      [
        "C",
        "h"
      ],
      [
        "M",
        "ay"
      ],
      [
        "a",
        "m"
      ],
      [
        "Ġt",
        "ao"
      ],
      [
        "Æ¡",
        "n"
      ],
      [
        "Ã¢",
        "y"
      ],
      [
        "Ġng",
        "hi"
      ],
      [
        "Æ°Æ¡",
        "c"
      ],
      [
        "iÃª",
        "t"
      ],
      [
        "e",
        "p"
      ],
      [
        "Ġ",
        "q"
      ],
      [
        "Æ°",
        "c"
      ],
      [
        "Ġph",
        "ep"
      ],
      [
        "Ġh",
        "Ã´"
      ],
      [
        "Ġth",
        "Æ¡i"
      ],
      [
        "Æ°",
        "a"
      ],
      [
        "a",
        "c"
      ],
      [
        "E",
        "m"
      ],
      [
        "Ġgi",
        "an"
      ],
      [
        "Ġx",
        "in"
      ],
      [
        "Ġx",
        "anh"
      ],
      [
        "Ãª",
        "t"
      ],
      [
        "Ã´",
        "t"
      ],
      [
        "ĠÄĳ",
        "Æ°Æ¡c"
      ],
      [
        "Ġgi",
        "a"
      ],
      [
        "Ġkh",
        "i"
      ],
      [
        "Ġ",
        "ra"
      ],
      [
        "Ġ",
        "em"
      ],
      [
        "Ġt",
        "Æ°"
      ],
      [
        "o",
        "an"
      ],
      [
        "ĠÄĳ",
        "Ã¢y"
      ],
      [
        "iÃª",
        "n"
      ],
      [
        "Ġd",
        "Æ°"
      ],
      [
        "Ġn",
        "Ãªn"
      ],
      [
        "Ch",
        "ao"
      ],
      [
        "a",
        "u"
      ],
      [
        "Ġd",
        "o"
      ],
      [
        "Ġv",
        "a"
      ],
      [
        "Ã¢",
        "u"
      ],
      [
        "Ġnh",
        "Æ°ng"
      ],
      [
        "Ġx",
        "em"
      ],
      [
        "uy",
        "Ãªn"
      ],
      [
        "u",
        "ng"
      ],
      [
        "Ġ",
        "anh"
      ],
      [
        "Ġm",
        "Ã´t"
      ],
      [
        "h",
        "e"
      ],
      [
        "Ġla",
        "i"
      ],
      [
        "Ġth",
        "Æ°c"
      ],
      [
        "Äĥ",
        "p"
      ],
      [
        "o",
        "ng"
      ],
      [
        "Ġ",
        "Æ¡"
      ],
      [
        "Ġt",
        "ra"
      ],
      [
        "ĠÄĳ",
        "Ã´ng"
      ],
      [
        "Ġn",
        "ay"
      ],
      [
        "Ġch",
        "Æ°a"
      ],
      [
        "ĥ",
        "n"
      ],
      [
        "ĠÄ",
        "ĥn"
      ],
      [
        "ai",
        "l"
      ],
      [
        "Æ°Æ¡",
        "ng"
      ],
      [
        "Ġem",
        "ail"
      ],
      [
        "X",
        "in"
      ],
      [
        "e",
        "l"
      ],
      [
        "Ġh",
        "Æ¡n"
      ],
      [
        "Ġnh",
        "o"
      ],
      [
        "Ġng",
        "he"
      ],
      [
        "Ġ",
        "Ġ"
      ],
      [
        "Ġb",
        "ao"
      ],
      [
        "Ġtr",
        "Æ¡i"
      ],
      [
        "c",
        "hi"
      ],
      [
        "u",
        "i"
      ],
      [
        "Ġ",
        "r"
      ],
      [
        "Ġl",
        "iÃªu"
      ],
      [
        "Ã¢",
        "p"
      ],
      [
        "Ġnh",
        "iÃªu"
      ],
      [
        "Ġph",
        "Ã¢n"
      ],
      [
        "ac",
        "h"
      ],
      [
        "Ã¢",
        "t"
      ],
      [
        "Ġn",
        "e"
      ],
      [
        "a",
        "t"
      ],
      [
        "e",
        "n"
      ],
      [
        "Ġnh",
        "Ã¢n"
      ],
      [
        "G",
        "i"
      ],
      [
        "d",
        "el"
      ],
      [
        "o",
        "del"
      ],
      [
        "u",
        "Ã´i"
      ],
      [
        "Ġm",
        "Æ¡i"
      ],
      [
        "Ġm",
        "odel"
      ],
      [
        "Ġnh",
        "a"
      ],
      [
        "Ġd",
        "Æ°ng"
      ],
      [
        "T",
        "Ãªn"
      ],
      [
        "Ġ",
        "Æ¡n"
      ],
      [
        "Ãª",
        "u"
      ],
      [
        "Ġb",
        "ai"
      ],
      [
        "Ġnh",
        "Ã¢t"
      ],
      [
        "Ġng",
        "ay"
      ],
      [
        "Äĥ",
        "c"
      ],
      [
        "Ġr",
        "Ã´i"
      ],
      [
        "B",
        "an"
      ],
      [
        "T",
        "iÃªu"
      ],
      [
        "a",
        "d"
      ],
      [
        "e",
        "ad"
      ],
      [
        "l",
        "in"
      ],
      [
        "n",
        "Em"
      ],
      [
        "Ġ",
        "["
      ],
      [
        "Ġ",
        "se"
      ],
      [
        "Ġ",
        "Em"
      ],
      [
        "Ġ",
        "Xin"
      ],
      [
        "Ġt",
        "an"
      ],
      [
        "ng",
        "ay"
      ],
      [
        "ĠÄĳ",
        "ang"
      ],
      [
        "Ġm",
        "au"
      ],
      [
        "Ġb",
        "iÃªt"
      ],
      [
        "Ġb",
        "Ã¢u"
      ],
      [
        "Ġh",
        "o"
      ],
      [
        "Ġd",
        "ead"
      ],
      [
        "Ġch",
        "uyÃªn"
      ],
      [
        "Ġs",
        "ang"
      ],
      [
        "Ġq",
        "uy"
      ],
      [
        "lin",
        "e"
      ],
      [
        "Ġdead",
        "line"
      ],
      [
        "u",
        "p"
      ],
      [
        "Ġl",
        "Äĥp"
      ],
      [
        "Ġnh",
        "e"
      ],
      [
        "Ġgi",
        "up"
      ],
      [
        "Ġs",
        "Ã´"
      ],
      [
        "o",
        "i"
      ],
      [
        "Ġ",
        "="
      ],
      [
        "Ġt",
        "Æ°Æ¡ng"
      ],
      [
        "Æ¡",
        "m"
      ],
      [
        "Ġc",
        "Æ¡m"
      ],
      [
        "Ġth",
        "i"
      ],
      [
        "Ġd",
        "u"
      ],
      [
        "Äĥ",
        "ng"
      ],
      [
        "M",
        "ong"
      ],
      [
        "Ä",
        "Ĳ"
      ],
      [
        "Ġ",
        "f"
      ],
      [
        "Ġ",
        "ai"
      ],
      [
        "Ġ",
        "Mong"
      ],
      [
        "Ġt",
        "iÃª"
      ],
      [
        "Ġt",
        "in"
      ],
      [
        "Ġv",
        "i"
      ],
      [
        "Ġs",
        "ach"
      ],
      [
        "Ġtr",
        "Æ¡"
      ],
      [
        "ĠtiÃª",
        "p"
      ],
      [
        "V",
        "i"
      ],
      [
        "Ġt",
        "ai"
      ],
      [
        "Ġt",
        "iÃªt"
      ],
      [
        "Æ°",
        "i"
      ],
      [
        "ĠÄĳ",
        "u"
      ],
      [
        "Ġb",
        "uÃ´i"
      ],
      [
        "Ġg",
        "Æ°i"
      ],
      [
        "Ġh",
        "anh"
      ],
      [
        "Ġh",
        "iÃªn"
      ],
      [
        "Ġv",
        "Ãª"
      ],
      [
        "S",
        "oan"
      ],
      [
        "V",
        "iÃªt"
      ],
      [
        "l",
        "o"
      ],
      [
        "o",
        "r"
      ],
      [
        "Ġt",
        "oan"
      ],
      [
        "Ġc",
        "Ã¢n"
      ],
      [
        "Ã´",
        "n"
      ],
      [
        "Ġl",
        "y"
      ],
      [
        "iÃª",
        "m"
      ],
      [
        "Ġk",
        "iÃªm"
      ],
      [
        "Ġgi",
        "ai"
      ],
      [
        "Ġd",
        "uy"
      ],
      [
        "Ġph",
        "iÃªn"
      ],
      [
        "Ġs",
        "au"
      ],
      [
        "Ġho",
        "Äĥc"
      ],
      [
        "Ġf",
        "or"
      ],
      [
        "Ġduy",
        "Ãªt"
      ],
      [
        "H",
        "am"
      ],
      [
        "T",
        "am"
      ],
      [
        "l",
        "e"
      ],
      [
        "y",
        "Ãªu"
      ],
      [
        "Ġ",
        "yÃªu"
      ],
      [
        "Ãª",
        "nh"
      ],
      [
        "Ġc",
        "Ã´ng"
      ],
      [
        "Ġc",
        "Ã¢p"
      ],
      [
        "Ġl",
        "ui"
      ],
      [
        "Ġl",
        "Ãªnh"
      ],
      [
        "ĠÄĳ",
        "Ã¢u"
      ],
      [
        "ĠÄĳ",
        "ung"
      ],
      [
        "Ġm",
        "ai"
      ],
      [
        "Ġb",
        "i"
      ],
      [
        "iÃª",
        "c"
      ],
      [
        "Ġh",
        "an"
      ],
      [
        "Ġth",
        "Ãª"
      ],
      [
        "Ġn",
        "ao"
      ],
      [
        "Ġkh",
        "Ã´i"
      ],
      [
        "Ġv",
        "ang"
      ],
      [
        "Ġv",
        "iÃªc"
      ],
      [
        "Ġx",
        "a"
      ],
      [
        "Ġch",
        "i"
      ],
      [
        "Ġs",
        "ao"
      ],
      [
        "Ġtr",
        "Æ°Æ¡c"
      ],
      [
        "Ġq",
        "uyÃªn"
      ],
      [
        "ĠhÃ´",
        "m"
      ],
      [
        "C",
        "am"
      ],
      [
        "K",
        "h"
      ],
      [
        "Ġ",
        "0"
      ],
      [
        "Ġl",
        "Ã¢p"
      ],
      [
        "Ġth",
        "Ã´i"
      ],
      [
        "Ġn",
        "oi"
      ],
      [
        "Ġv",
        "ao"
      ],
      [
        "Ġv",
        "ui"
      ],
      [
        "Ġch",
        "inh"
      ],
      [
        "Ġtr",
        "inh"
      ],
      [
        "Kh",
        "Ã´ng"
      ],
      [
        "N",
        "g"
      ],
      [
        "Ġt",
        "inh"
      ],
      [
        "Ġc",
        "ac"
      ],
      [
        "Ġm",
        "Ãªt"
      ],
      [
        "Ġph",
        "Æ¡"
      ],
      [
        "ÄĲ",
        "Ãª"
      ],
      [
        "T",
        "Ã´i"
      ],
      [
        "Ġ",
        "("
      ],
      [
        "Ġth",
        "anh"
      ],
      [
        "!",
        ","
      ],
      [
        ")",
        "!,"
      ],
      [
        ",",
        "\\"
      ],
      [
        "C",
        "o"
      ],
      [
        "G",
        "P"
      ],
      [
        "K",
        "inh"
      ],
      [
        "h",
        "on"
      ],
      [
        "k",
        "en"
      ],
      [
        "n",
        "Cam"
      ],
      [
        "o",
        "ken"
      ],
      [
        "t",
        "hon"
      ],
      [
        "u",
        "c"
      ],
      [
        "y",
        "thon"
      ],
      [
        "Ġ",
        "*"
      ],
      [
        "Ġ",
        "Y"
      ],
      [
        "Ġ",
        "a"
      ],
      [
        "Ġ",
        "Ch"
      ],
      [
        "Ġt",
        "Ãª"
      ],
      [
        "Ġt",
        "Æ¡i"
      ],
      [
        "Ġt",
        "Ã´i"
      ],
      [
        "Ġt",
        "oken"
      ],
      [
        "Ġt",
        "uc"
      ],
      [
        "Ġc",
        "ao"
      ],
      [
        "Ġc",
        "am"
      ],
      [
        "Ġl",
        "Æ¡i"
      ],
      [
        "Ġl",
        "Æ°Æ¡ng"
      ],
      [
        "ĠÄĳ",
        "a"
      ],
      [
        "ĠÄĳ",
        "o"
      ],
      [
        "ĠÄĳ",
        "Æ¡n"
      ],
      [
        "Ġm",
        "Ã¢y"
      ],
      [
        "Ġb",
        "Äĥng"
      ],
      [
        "Ġh",
        "Ãª"
      ],
      [
        "Ġh",
        "ang"
      ],
      [
        "Ġgi",
        "Æ¡"
      ],
      [
        "Ġth",
        "Ã´ng"
      ],
      [
        "Ġth",
        "Æ°a"
      ],
      [
        "Ġd",
        "anh"
      ],
      [
        "Ġn",
        "Äĥng"
      ],
      [
        "Ġkh",
        "ach"
      ],
      [
        "Ġv",
        "Ã¢n"
      ],
      [
        "Ġs",
        "Æ°"
      ],
      [
        "Ch",
        "o"
      ],
      [
        "ĠĠ",
        "Ġ"
      ],
      [
        "at",
        "GP"
      ],
      [
        "Gi",
        "Æ¡"
      ],
      [
        "Ġchi",
        "a"
      ],
      [
        "ĠCh",
        "atGP"
      ],
      [
        "ĠChatGP",
        "T"
      ],
      [
        "!",
        "\","
      ],
      [
        "H",
        "i"
      ],
      [
        "H",
        "en"
      ],
      [
        "P",
        "ython"
      ],
      [
        "S",
        "D"
      ],
      [
        "T",
        "h"
      ],
      [
        "T",
        "y"
      ],
      [
        "T",
        "in"
      ],
      [
        "U",
        "SD"
      ],
      [
        "e",
        "o"
      ],
      [
        "i",
        "t"
      ],
      [
        "u",
        "Ã´n"
      ],
      [
        "Æ",
        "¯"
      ],
      [
        "Ġ",
        "R"
      ],
      [
        "Ġ",
        "Hen"
      ],
      [
        "Ġ",
        "Python"
      ],
      [
        "Ġ",
        "USD"
      ],
      [
        "Ġt",
        "y"
      ],
      [
        "Ġt",
        "Æ°c"
      ],
      [
        "Ġc",
        "a"
      ],
      [
        "Ġl",
        "Ã¢n"
      ],
      [
        "Ġb",
        "ang"
      ],
      [
        "Ġgi",
        "ao"
      ],
      [
        "Ġth",
        "eo"
      ],
      [
        "Ġn",
        "Ãªu"
      ],
      [
        "Ġng",
        "uÃ´n"
      ],
      [
        "Ġch",
        "ao"
      ],
      [
        "ĠB",
        "an"
      ],
      [
        "Ġtr",
        "Æ°c"
      ],
      [
        "Ġq",
        "ua"
      ],
      [
        "Ng",
        "hi"
      ],
      [
        "Th",
        "Æ¡i"
      ],
      [
        "\"",
        "\\"
      ],
      [
        "A",
        "nh"
      ],
      [
        "A",
        "lo"
      ],
      [
        "B",
        "y"
      ],
      [
        "D",
        "o"
      ],
      [
        "S",
        "ang"
      ],
      [
        "T",
        "ai"
      ],
      [
        "V",
        "ong"
      ],
      [
        "b",
        "le"
      ],
      [
        "c",
        "h"
      ],
      [
        "e",
        "ra"
      ],
      [
        "r",
        "d"
      ],
      [
        "Ġ",
        "re"
      ],
      [
        "Ġ",
        "Ã´n"
      ],
      [
        "Ġ",
        "it"
      ],
      [
        "Ġt",
        "a"
      ],
      [
        "Ġt",
        "Ãªn"
      ],
      [
        "Ġt",
        "Æ°ng"
      ],
      [
        "Ġt",
        "Ã´t"
      ],
      [
        "Ġc",
        "ung"
      ],
      [
        "Æ°",
        "Æ¡i"
      ],
      [
        "ĠÄĳ",
        "inh"
      ],
      [
        "ĠÄĳ",
        "Ãªn"
      ],
      [
        "Ġm",
        "Æ¡"
      ],
      [
        "Ġm",
        "anh"
      ],
      [
        "Ġm",
        "Äĥ"
      ],
      [
        "Ġg",
        "Äĥp"
      ],
      [
        "Ġla",
        "nh"
      ],
      [
        "Ġh",
        "am"
      ],
      [
        "Ġh",
        "oan"
      ],
      [
        "Ġh",
        "en"
      ],
      [
        "Ġnh",
        "in"
      ],
      [
        "Ġk",
        "Ãªt"
      ],
      [
        "Ġth",
        "Ã¢y"
      ],
      [
        "Ġd",
        "ung"
      ],
      [
        "ay",
        "le"
      ],
      [
        "Ġkh",
        "ac"
      ],
      [
        "Ġv",
        "Ã¢y"
      ],
      [
        "Ġv",
        "ong"
      ],
      [
        "Ġx",
        "Æ°"
      ],
      [
        "Ġng",
        "Æ°Æ¡i"
      ],
      [
        "Ġch",
        "o"
      ],
      [
        "Ġch",
        "ay"
      ],
      [
        "Ġch",
        "at"
      ],
      [
        "Ġch",
        "uÃ´i"
      ],
      [
        "Ġch",
        "Äĥc"
      ],
      [
        "ig",
        "h"
      ],
      [
        "Ġph",
        "Ãªt"
      ],
      [
        "ĠA",
        "I"
      ],
      [
        "Ġtr",
        "Ã´ng"
      ],
      [
        "Ġne",
        "rd"
      ],
      [
        "Gi",
        "a"
      ],
      [
        "Gi",
        "ai"
      ],
      [
        "Ġthi",
        "ch"
      ],
      [
        "ĠR",
        "ayle"
      ],
      [
        "By",
        "e"
      ],
      [
        "era",
        "ble"
      ],
      [
        "Ġit",
        "erable"
      ],
      [
        "ĠmÄĥ",
        "t"
      ],
      [
        "ĠRayle",
        "igh"
      ],
      [
        "A",
        "i"
      ],
      [
        "A",
        "evynt"
      ],
      [
        "B",
        "igram"
      ],
      [
        "H",
        "el"
      ],
      [
        "]",
        "."
      ],
      [
        "u",
        "m"
      ],
      [
        "u",
        "ay"
      ],
      [
        "Ġ",
        "TÃªn"
      ],
      [
        "Ãª",
        "p"
      ],
      [
        "ĠÄĳ",
        "iÃªu"
      ],
      [
        "Ġm",
        "ay"
      ],
      [
        "Ġb",
        "Ã¢n"
      ],
      [
        "Ġg",
        "on"
      ],
      [
        "Ġg",
        "oi"
      ],
      [
        "Ġh",
        "Æ¡i"
      ],
      [
        "Ġk",
        "iÃªn"
      ],
      [
        "Ġn",
        "o"
      ],
      [
        "Ġx",
        "Ãªp"
      ],
      [
        "Ġng",
        "Äĥ"
      ],
      [
        "Ġph",
        "ai"
      ],
      [
        "Ġs",
        "Äĥp"
      ],
      [
        "Ch",
        "Æ°a"
      ],
      [
        "Ġq",
        "uay"
      ],
      [
        "Ġho",
        "at"
      ],
      [
        "ÄĲ",
        "ung"
      ],
      [
        "Ġre",
        "n"
      ],
      [
        "Hel",
        "lo"
      ],
      [
        "ĠngÄĥ",
        "n"
      ],
      [
        ":",
        "\\"
      ],
      [
        "`",
        "`"
      ],
      [
        "s",
        "t"
      ],
      [
        "Ġth",
        "am"
      ],
      [
        "Ġch",
        "iÃªu"
      ],
      [
        "\"\\",
        "\"\\"
      ],
      [
        ".",
        "\\"
      ],
      [
        "b",
        "e"
      ],
      [
        "i",
        "st"
      ],
      [
        "r",
        "s"
      ],
      [
        "Ã",
        "Ĭ"
      ],
      [
        "Ġ",
        "T"
      ],
      [
        "Ġt",
        "Ã´ng"
      ],
      [
        "Ġr",
        "Ã¢t"
      ],
      [
        "Ng",
        "he"
      ],
      [
        "um",
        "be"
      ],
      [
        "umbe",
        "rs"
      ],
      [
        ">",
        "="
      ],
      [
        "\\",
        "\"\\\"\\"
      ],
      [
        "d",
        "e"
      ],
      [
        "r",
        "n"
      ],
      [
        "t",
        "u"
      ],
      [
        "Ġ",
        ">="
      ],
      [
        "Ġ",
        "\\\"\\\"\\"
      ],
      [
        "Ġl",
        "ist"
      ],
      [
        "Ġd",
        "Æ°Æ¡ng"
      ],
      [
        "Ġn",
        "umbers"
      ],
      [
        "Ġs",
        "um"
      ],
      [
        "ĠĠ",
        "ĠĠ"
      ],
      [
        "Ġf",
        "lo"
      ],
      [
        "``",
        "`"
      ],
      [
        "tu",
        "rn"
      ],
      [
        "Ġ\\\"\\\"\\",
        "\"\\"
      ],
      [
        "ĠĠĠĠ",
        "ĠĠĠ"
      ],
      [
        "Ġflo",
        "at"
      ],
      [
        ")",
        ":"
      ],
      [
        ")",
        "\\"
      ],
      [
        "-",
        ">"
      ],
      [
        "D",
        "anh"
      ],
      [
        "c",
        "st"
      ],
      [
        "e",
        "nt"
      ],
      [
        "e",
        "turn"
      ],
      [
        "g",
        "s"
      ],
      [
        "i",
        "f"
      ],
      [
        "i",
        "v"
      ],
      [
        "i",
        "ng"
      ],
      [
        "l",
        "ist"
      ],
      [
        "m",
        "m"
      ],
      [
        "n",
        "umbers"
      ],
      [
        "n",
        "de"
      ],
      [
        "o",
        "s"
      ],
      [
        "p",
        "ython"
      ],
      [
        "p",
        "os"
      ],
      [
        "r",
        "gs"
      ],
      [
        "r",
        "ing"
      ],
      [
        "u",
        "Ã¢n"
      ],
      [
        "Ġ",
        "Ã¢"
      ],
      [
        "Ġ",
        "in"
      ],
      [
        "Ġ",
        "->"
      ],
      [
        "Ġ",
        "Danh"
      ],
      [
        "Ġ",
        "if"
      ],
      [
        "Ġ\"",
        "```"
      ],
      [
        "Ġb",
        "o"
      ],
      [
        "Ġv",
        "iÃªt"
      ],
      [
        "Ġch",
        "uÃ¢n"
      ],
      [
        "ĠA",
        "rgs"
      ],
      [
        "Ġtr",
        "i"
      ],
      [
        "Ġco",
        "de"
      ],
      [
        "Ġco",
        "mm"
      ],
      [
        "Ġdo",
        "cst"
      ],
      [
        "Ġr",
        "Ã´ng"
      ],
      [
        "it",
        "iv"
      ],
      [
        "ĠR",
        "eturn"
      ],
      [
        "Ġre",
        "turn"
      ],
      [
        "ĠT",
        "inh"
      ],
      [
        "ĠT",
        "ra"
      ],
      [
        "ĠT",
        "Ã´ng"
      ],
      [
        "```",
        "\"}"
      ],
      [
        "nde",
        "f"
      ],
      [
        "pos",
        "itiv"
      ],
      [
        "ĠÃ¢",
        "m"
      ],
      [
        "Ġcomm",
        "ent"
      ],
      [
        "Ġdocst",
        "ring"
      ],
      [
        "ĠReturn",
        "s"
      ],
      [
        "positiv",
        "e"
      ]
    ]
  }
}